{
  "version": "1.0",
  "truncation": null,
  "padding": null,
  "added_tokens": [
    {
      "id": 0,
      "content": "[UNK]",
      "single_word": false,
      "lstrip": false,
      "rstrip": false,
      "normalized": false,
      "special": true
    },
    {
      "id": 1,
      "content": "[PAD]",
      "single_word": false,
      "lstrip": false,
      "rstrip": false,
      "normalized": false,
      "special": true
    },
    {
      "id": 2,
      "content": "[BOS]",
      "single_word": false,
      "lstrip": false,
      "rstrip": false,
      "normalized": false,
      "special": true
    },
    {
      "id": 3,
      "content": "[EOS]",
      "single_word": false,
      "lstrip": false,
      "rstrip": false,
      "normalized": false,
      "special": true
    }
  ],
  "normalizer": null,
  "pre_tokenizer": {
    "type": "ByteLevel",
    "add_prefix_space": true,
    "trim_offsets": true,
    "use_regex": true
  },
  "post_processor": null,
  "decoder": null,
  "model": {
    "type": "BPE",
    "dropout": null,
    "unk_token": "[UNK]",
    "continuing_subword_prefix": null,
    "end_of_word_suffix": null,
    "fuse_unk": false,
    "byte_fallback": false,
    "ignore_merges": false,
    "vocab": {
      "[UNK]": 0,
      "[PAD]": 1,
      "[BOS]": 2,
      "[EOS]": 3,
      "!": 4,
      "\"": 5,
      "#": 6,
      "$": 7,
      "%": 8,
      "&": 9,
      "'": 10,
      "(": 11,
      ")": 12,
      "*": 13,
      "+": 14,
      ",": 15,
      "-": 16,
      ".": 17,
      "/": 18,
      "0": 19,
      "1": 20,
      "2": 21,
      "3": 22,
      "4": 23,
      "5": 24,
      "6": 25,
      "7": 26,
      "8": 27,
      "9": 28,
      ":": 29,
      ";": 30,
      "<": 31,
      "=": 32,
      ">": 33,
      "?": 34,
      "@": 35,
      "A": 36,
      "B": 37,
      "C": 38,
      "D": 39,
      "E": 40,
      "F": 41,
      "G": 42,
      "H": 43,
      "I": 44,
      "J": 45,
      "K": 46,
      "L": 47,
      "M": 48,
      "N": 49,
      "O": 50,
      "P": 51,
      "Q": 52,
      "R": 53,
      "S": 54,
      "T": 55,
      "U": 56,
      "V": 57,
      "W": 58,
      "X": 59,
      "Y": 60,
      "Z": 61,
      "[": 62,
      "\\": 63,
      "]": 64,
      "^": 65,
      "_": 66,
      "`": 67,
      "a": 68,
      "b": 69,
      "c": 70,
      "d": 71,
      "e": 72,
      "f": 73,
      "g": 74,
      "h": 75,
      "i": 76,
      "j": 77,
      "k": 78,
      "l": 79,
      "m": 80,
      "n": 81,
      "o": 82,
      "p": 83,
      "q": 84,
      "r": 85,
      "s": 86,
      "t": 87,
      "u": 88,
      "v": 89,
      "w": 90,
      "x": 91,
      "y": 92,
      "z": 93,
      "{": 94,
      "|": 95,
      "}": 96,
      "~": 97,
      "¡": 98,
      "¢": 99,
      "£": 100,
      "¤": 101,
      "¥": 102,
      "¦": 103,
      "§": 104,
      "¨": 105,
      "©": 106,
      "ª": 107,
      "«": 108,
      "¬": 109,
      "®": 110,
      "¯": 111,
      "°": 112,
      "±": 113,
      "²": 114,
      "³": 115,
      "´": 116,
      "µ": 117,
      "¶": 118,
      "·": 119,
      "¸": 120,
      "¹": 121,
      "º": 122,
      "»": 123,
      "¼": 124,
      "½": 125,
      "¾": 126,
      "¿": 127,
      "Â": 128,
      "Ã": 129,
      "Ä": 130,
      "Å": 131,
      "Æ": 132,
      "Ç": 133,
      "È": 134,
      "É": 135,
      "Ê": 136,
      "Ë": 137,
      "Ì": 138,
      "Í": 139,
      "Î": 140,
      "Ï": 141,
      "Ð": 142,
      "Ñ": 143,
      "Ò": 144,
      "Ó": 145,
      "Ô": 146,
      "Õ": 147,
      "Ö": 148,
      "×": 149,
      "Ø": 150,
      "Ù": 151,
      "Ú": 152,
      "Û": 153,
      "Ü": 154,
      "Ý": 155,
      "à": 156,
      "á": 157,
      "â": 158,
      "ã": 159,
      "ä": 160,
      "å": 161,
      "æ": 162,
      "ç": 163,
      "è": 164,
      "é": 165,
      "ê": 166,
      "ë": 167,
      "ì": 168,
      "í": 169,
      "ï": 170,
      "ð": 171,
      "Ċ": 172,
      "Ġ": 173,
      "Ģ": 174,
      "ģ": 175,
      "Ĥ": 176,
      "ĥ": 177,
      "Ħ": 178,
      "ħ": 179,
      "Ĩ": 180,
      "ĩ": 181,
      "Ī": 182,
      "ī": 183,
      "Ĭ": 184,
      "ĭ": 185,
      "Į": 186,
      "į": 187,
      "İ": 188,
      "ı": 189,
      "Ĳ": 190,
      "ĳ": 191,
      "Ĵ": 192,
      "ĵ": 193,
      "Ķ": 194,
      "ķ": 195,
      "ĸ": 196,
      "Ĺ": 197,
      "ĺ": 198,
      "Ļ": 199,
      "ļ": 200,
      "Ľ": 201,
      "ľ": 202,
      "Ŀ": 203,
      "ŀ": 204,
      "Ł": 205,
      "ł": 206,
      "Ń": 207,
      "Ġt": 208,
      "he": 209,
      "Ġa": 210,
      "in": 211,
      "Ġthe": 212,
      "er": 213,
      "on": 214,
      "Ġ,": 215,
      "re": 216,
      "Ġs": 217,
      "ed": 218,
      "Ġw": 219,
      "Ġo": 220,
      "nd": 221,
      "at": 222,
      "Ġ.": 223,
      "or": 224,
      "en": 225,
      "Ġc": 226,
      "it": 227,
      "Ġf": 228,
      "is": 229,
      "es": 230,
      "ar": 231,
      "Ġb": 232,
      "Ġof": 233,
      "an": 234,
      "Ġin": 235,
      "al": 236,
      "ing": 237,
      "Ġp": 238,
      "as": 239,
      "Ġand": 240,
      "Ġto": 241,
      "ic": 242,
      "ro": 243,
      "Ġm": 244,
      "Ġd": 245,
      "Ġh": 246,
      "ion": 247,
      "le": 248,
      "ou": 249,
      "ĠT": 250,
      "Ġre": 251,
      "Ġ=": 252,
      "ĠS": 253,
      "il": 254,
      "ĠA": 255,
      "ent": 256,
      "Ġ\"": 257,
      "Ġ1": 258,
      "Ġth": 259,
      "st": 260,
      "el": 261,
      "ĠC": 262,
      "Ġl": 263,
      "Ġ@": 264,
      "om": 265,
      "Ġe": 266,
      "ĠĊ": 267,
      "am": 268,
      "Ġn": 269,
      "ad": 270,
      "ac": 271,
      "Ġwas": 272,
      "ĠM": 273,
      "ĠB": 274,
      "ec": 275,
      "Ġon": 276,
      "ĠThe": 277,
      "ly": 278,
      "ur": 279,
      "Ġ'": 280,
      "et": 281,
      "id": 282,
      "ol": 283,
      "Ġg": 284,
      "im": 285,
      "ĠI": 286,
      "-@": 287,
      "Ġ@-@": 288,
      "Ġfor": 289,
      "ir": 290,
      "ig": 291,
      "iv": 292,
      "ot": 293,
      "ter": 294,
      "ĠH": 295,
      "ut": 296,
      "Ġas": 297,
      "us": 298,
      "ow": 299,
      "ith": 300,
      "ay": 301,
      "Ġ2": 302,
      "ĠP": 303,
      "Ġst": 304,
      "Ġhe": 305,
      "ver": 306,
      "ation": 307,
      "Ġwith": 308,
      "Ġbe": 309,
      "ĠR": 310,
      "Ġthat": 311,
      "ĠD": 312,
      "ce": 313,
      "un": 314,
      "em": 315,
      "ĠW": 316,
      "Ġwh": 317,
      "ĠF": 318,
      "ch": 319,
      "Ġby": 320,
      "th": 321,
      "Ġal": 322,
      "Ġ)": 323,
      "Ġ(": 324,
      "ĠL": 325,
      "ul": 326,
      "ĠG": 327,
      "Ġis": 328,
      "Ġcon": 329,
      "ers": 330,
      "Ġat": 331,
      "ct": 332,
      "ĠN": 333,
      "ra": 334,
      "os": 335,
      "Ġ19": 336,
      "Ġan": 337,
      "Ġit": 338,
      "her": 339,
      "rom": 340,
      "and": 341,
      "um": 342,
      "ĠJ": 343,
      "est": 344,
      "00": 345,
      "Ġhis": 346,
      "ĠE": 347,
      "ag": 348,
      "av": 349,
      "ain": 350,
      "ri": 351,
      "od": 352,
      "Ġfrom": 353,
      "ĠO": 354,
      "ist": 355,
      "Ġcom": 356,
      "Ġv": 357,
      "Ġpro": 358,
      "op": 359,
      "ill": 360,
      "ore": 361,
      "if": 362,
      "ld": 363,
      "up": 364,
      "Ġr": 365,
      "ew": 366,
      "ere": 367,
      "res": 368,
      "igh": 369,
      "ĠIn": 370,
      "ies": 371,
      "Ġde": 372,
      "ber": 373,
      "art": 374,
      "ard": 375,
      "ort": 376,
      "Ġse": 377,
      "ich": 378,
      "Ġwere": 379,
      "ate": 380,
      "all": 381,
      "ak": 382,
      "ant": 383,
      "oc": 384,
      "ud": 385,
      "ap": 386,
      "Ġex": 387,
      "qu": 388,
      "ong": 389,
      "ab": 390,
      "Ġch": 391,
      "Ġor": 392,
      "ĠK": 393,
      "gh": 394,
      "ear": 395,
      "ess": 396,
      "ated": 397,
      "Ġpl": 398,
      "Ġsh": 399,
      "ity": 400,
      "ip": 401,
      "ive": 402,
      "ame": 403,
      "ĠU": 404,
      "Ġâ": 405,
      "Ġhad": 406,
      "ect": 407,
      "ack": 408,
      "ĠSt": 409,
      "ĠâĢ": 410,
      "Ġsu": 411,
      "ast": 412,
      "se": 413,
      "red": 414,
      "Ġk": 415,
      "ge": 416,
      "Ġwhich": 417,
      "our": 418,
      "ment": 419,
      "Ġle": 420,
      "und": 421,
      "Ġare": 422,
      "ov": 423,
      "ian": 424,
      "ial": 425,
      "Ġnot": 426,
      "ell": 427,
      "Ġsp": 428,
      "ost": 429,
      "Ġy": 430,
      "ight": 431,
      "ia": 432,
      "ord": 433,
      "ust": 434,
      "ary": 435,
      "ine": 436,
      "ther": 437,
      "pt": 438,
      "rit": 439,
      "Ġ3": 440,
      "oun": 441,
      "pp": 442,
      "ical": 443,
      "ĠCh": 444,
      "ave": 445,
      "Ġun": 446,
      "Ġ200": 447,
      "cc": 448,
      "Ġinc": 449,
      "fter": 450,
      "ould": 451,
      "ĠV": 452,
      "Ġbut": 453,
      "irst": 454,
      "ish": 455,
      "ous": 456,
      "te": 457,
      "ff": 458,
      "ions": 459,
      "so": 460,
      "Ġcomp": 461,
      "Ġ20": 462,
      "ide": 463,
      "Ġro": 464,
      "ure": 465,
      "Ġwhe": 466,
      "ub": 467,
      "Ġar": 468,
      "Ġcont": 469,
      "ie": 470,
      "Ġ;": 471,
      "og": 472,
      "ign": 473,
      "Ġfirst": 474,
      "Ġcl": 475,
      "wo": 476,
      "Ġher": 477,
      "ry": 478,
      "ue": 479,
      "Ġits": 480,
      "ass": 481,
      "Ġtheir": 482,
      "orm": 483,
      "ĠâĢĵ": 484,
      "ok": 485,
      "ork": 486,
      "Ġint": 487,
      "Ġres": 488,
      "ĠHe": 489,
      "Ġ:": 490,
      "ater": 491,
      "Ġalso": 492,
      "Ġab": 493,
      "ond": 494,
      "Ġad": 495,
      "ome": 496,
      "out": 497,
      "ran": 498,
      "mer": 499,
      "ire": 500,
      "hed": 501,
      "ru": 502,
      "Ġus": 503,
      "age": 504,
      "du": 505,
      "Ġ4": 506,
      "ime": 507,
      "low": 508,
      "Ġper": 509,
      "per": 510,
      "Ġwho": 511,
      "Ġ5": 512,
      "ĠTh": 513,
      "Ġone": 514,
      "Ġhave": 515,
      "Ġsc": 516,
      "pl": 517,
      "ally": 518,
      "own": 519,
      "ile": 520,
      "Ġrec": 521,
      "Ġ18": 522,
      "ted": 523,
      ".@": 524,
      "Ġ@.@": 525,
      "Ġtwo": 526,
      "ition": 527,
      "ugh": 528,
      "iz": 529,
      "ree": 530,
      "ence": 531,
      "ts": 532,
      "uring": 533,
      "port": 534,
      "Ġbeen": 535,
      "Ġpart": 536,
      "Ġbec": 537,
      "ice": 538,
      "Ġhas": 539,
      "ĠAl": 540,
      "Ġag": 541,
      "Ġapp": 542,
      "Ġ201": 543,
      "ough": 544,
      ",@": 545,
      "Ġ@,@": 546,
      "Ġj": 547,
      "Ġen": 548,
      "Ġdis": 549,
      "lud": 550,
      "ke": 551,
      "Ġover": 552,
      "Ġser": 553,
      "Ġthis": 554,
      "ory": 555,
      "ely": 556,
      "Ġyear": 557,
      "ations": 558,
      "ember": 559,
      "ren": 560,
      "ction": 561,
      "ound": 562,
      "ach": 563,
      "Ġoff": 564,
      "Ġafter": 565,
      "ric": 566,
      "Ġup": 567,
      "land": 568,
      "Ġplay": 569,
      "Ġdes": 570,
      "ace": 571,
      "ĠIt": 572,
      "ark": 573,
      "over": 574,
      "ance": 575,
      "Ġout": 576,
      "Ġthey": 577,
      "Ġman": 578,
      "ade": 579,
      "Ġte": 580,
      "act": 581,
      "Ġother": 582,
      "ib": 583,
      "man": 584,
      "ult": 585,
      "Ġim": 586,
      "ĠY": 587,
      "ph": 588,
      "ress": 589,
      "Ġinclud": 590,
      "ced": 591,
      "ens": 592,
      "urn": 593,
      "wn": 594,
      "Ġwould": 595,
      "ind": 596,
      "Ġtime": 597,
      "one": 598,
      "Ġpre": 599,
      "Ġinto": 600,
      "vel": 601,
      "ĠOn": 602,
      "ĠUn": 603,
      "ward": 604,
      "we": 605,
      "Ġwe": 606,
      "Ġhim": 607,
      "ite": 608,
      "oin": 609,
      "ates": 610,
      "Ġ6": 611,
      "Ġshe": 612,
      "les": 613,
      "Ġev": 614,
      "ilm": 615,
      "Ġatt": 616,
      "ased": 617,
      "Ġne": 618,
      "ited": 619,
      "able": 620,
      "end": 621,
      "ied": 622,
      "ase": 623,
      "amp": 624,
      "Ġcomm": 625,
      "ors": 626,
      "Ġinter": 627,
      "are": 628,
      "rough": 629,
      "oy": 630,
      "ons": 631,
      "ount": 632,
      "ep": 633,
      "form": 634,
      "Ġall": 635,
      "ose": 636,
      "ood": 637,
      "ang": 638,
      "Ġmore": 639,
      "ces": 640,
      "Ġwork": 641,
      "Ġ7": 642,
      "ail": 643,
      "old": 644,
      "aw": 645,
      "ered": 646,
      "ings": 647,
      "ve": 648,
      "ild": 649,
      "ĠAn": 650,
      "Ġnew": 651,
      "Ġsec": 652,
      "Ġbet": 653,
      "Ġwhen": 654,
      "inal": 655,
      "Ġfe": 656,
      "Ġfilm": 657,
      "ick": 658,
      "vi": 659,
      "ents": 660,
      "ĠSe": 661,
      "way": 662,
      "att": 663,
      "ft": 664,
      "iss": 665,
      "aus": 666,
      "fer": 667,
      "Ġ8": 668,
      "gan": 669,
      "ĠMar": 670,
      "reat": 671,
      "rib": 672,
      "Ġcons": 673,
      "ĠAr": 674,
      "round": 675,
      "ake": 676,
      "Ġrem": 677,
      "ved": 678,
      "Ġtr": 679,
      "Ġdec": 680,
      "ason": 681,
      "ans": 682,
      "Ġduring": 683,
      "Ġund": 684,
      "orth": 685,
      "ubl": 686,
      "Ġ9": 687,
      "hip": 688,
      "Ġagain": 689,
      "ĠAs": 690,
      "Ġmost": 691,
      "Ġgame": 692,
      "oth": 693,
      "Ġthem": 694,
      "Ġ199": 695,
      "Ġonly": 696,
      "Ġpr": 697,
      "ath": 698,
      "ween": 699,
      "ix": 700,
      "Ġear": 701,
      "ollow": 702,
      "Ġthan": 703,
      "ob": 704,
      "rop": 705,
      "Ġsup": 706,
      "ational": 707,
      "fore": 708,
      "ĠNew": 709,
      "Ġabout": 710,
      "Ġprodu": 711,
      "ug": 712,
      "Ġcent": 713,
      "tern": 714,
      "Ġkn": 715,
      "Ġret": 716,
      "ey": 717,
      "Ġchar": 718,
      "Ġsong": 719,
      "Ġcan": 720,
      "outh": 721,
      "Ġbetween": 722,
      "Ġlater": 723,
      "orn": 724,
      "Ġrele": 725,
      "Ġunder": 726,
      "ict": 727,
      "Ġthree": 728,
      "hn": 729,
      "ton": 730,
      "Ġcol": 731,
      "ron": 732,
      "Ġact": 733,
      "Ġ00": 734,
      "als": 735,
      "Ġqu": 736,
      "Ġthrough": 737,
      "ĠEn": 738,
      "orld": 739,
      "ook": 740,
      "Ġnum": 741,
      "Ġso": 742,
      "Ġme": 743,
      "Ġacc": 744,
      "Ġrel": 745,
      "Ġwhile": 746,
      "Ġra": 747,
      "Ġend": 748,
      "meric": 749,
      "ĠLe": 750,
      "lect": 751,
      "ĠAmeric": 752,
      "Ġfl": 753,
      "ters": 754,
      "ock": 755,
      "Ġpos": 756,
      "ral": 757,
      "Ġsub": 758,
      "ever": 759,
      "ular": 760,
      "Ġass": 761,
      "ating": 762,
      "Ġwhere": 763,
      "Ġver": 764,
      "Ġday": 765,
      "ck": 766,
      "Ġreg": 767,
      "Ġsecond": 768,
      "ener": 769,
      "aid": 770,
      "Ġbu": 771,
      "ĠCom": 772,
      "Ġmade": 773,
      "ames": 774,
      "ision": 775,
      "ived": 776,
      "ĠRe": 777,
      "Ġpe": 778,
      "hes": 779,
      "Ġrecord": 780,
      "son": 781,
      "Ġdef": 782,
      "bum": 783,
      "Ġfour": 784,
      "Ġgro": 785,
      "Ġfollow": 786,
      "Ġseason": 787,
      "Ġ000": 788,
      "Ġep": 789,
      "Ġform": 790,
      "Ġsome": 791,
      "Ġsuch": 792,
      "Ġam": 793,
      "ool": 794,
      "ished": 795,
      "Ġmov": 796,
      "Ġbefore": 797,
      "Ġtra": 798,
      "Ġmus": 799,
      "ĠSp": 800,
      "Ġthere": 801,
      "Ġwrit": 802,
      "hen": 803,
      "ics": 804,
      "ĠJo": 805,
      "io": 806,
      "Ġspec": 807,
      "iel": 808,
      "Ġ10": 809,
      "ike": 810,
      "Ġsy": 811,
      "Ġyears": 812,
      "Ġteam": 813,
      "ĠAt": 814,
      "ode": 815,
      "ual": 816,
      "ĠThis": 817,
      "ident": 818,
      "Ġ/": 819,
      "Ġlar": 820,
      "Ġalbum": 821,
      "ĠSh": 822,
      "Ġind": 823,
      "ros": 824,
      "ily": 825,
      "owever": 826,
      "Ġent": 827,
      "ning": 828,
      "Ġused": 829,
      "Ġcall": 830,
      "ank": 831,
      "Ġsur": 832,
      "ific": 833,
      "Ġac": 834,
      "Ġhigh": 835,
      "ury": 836,
      "Ġpubl": 837,
      "Ġbeing": 838,
      "Ġepis": 839,
      "ained": 840,
      "Ġthen": 841,
      "led": 842,
      "ten": 843,
      "velop": 844,
      "aj": 845,
      "Ġdo": 846,
      "Ġloc": 847,
      "Ġexp": 848,
      "ife": 849,
      "ris": 850,
      "Ġ17": 851,
      "Ġagainst": 852,
      "Ġinv": 853,
      "Ġ0": 854,
      "Ġbl": 855,
      "Ġpres": 856,
      "Ġshow": 857,
      "other": 858,
      "Ġnumber": 859,
      "ĠAfter": 860,
      "Ġcharac": 861,
      "ious": 862,
      "Ġsever": 863,
      "Ġadd": 864,
      "Ġco": 865,
      "Ġset": 866,
      "ek": 867,
      "ince": 868,
      "ject": 869,
      "ars": 870,
      "Ġbecame": 871,
      "Ġrece": 872,
      "ĠBrit": 873,
      "ause": 874,
      "Ġlead": 875,
      "Ġperform": 876,
      "Ġno": 877,
      "Ġincluding": 878,
      "Ġsing": 879,
      "ather": 880,
      "ins": 881,
      "ĠâĢĶ": 882,
      "ines": 883,
      "Ġfound": 884,
      "ĠUnited": 885,
      "rans": 886,
      "air": 887,
      "Ġwell": 888,
      "ale": 889,
      "Ġmon": 890,
      "Ġrep": 891,
      "ĠSc": 892,
      "Ġpol": 893,
      "Ġback": 894,
      "Ġboth": 895,
      "ier": 896,
      "Ġcap": 897,
      "Ġ198": 898,
      "Ġseries": 899,
      "Ġ15": 900,
      "Ġ12": 901,
      "ober": 902,
      "ram": 903,
      "ĠCon": 904,
      "ik": 905,
      "ower": 906,
      "Ġship": 907,
      "ement": 908,
      "its": 909,
      "ert": 910,
      "ired": 911,
      "ures": 912,
      "ley": 913,
      "ĠWh": 914,
      "ĠShe": 915,
      "ivers": 916,
      "Ġmain": 917,
      "pen": 918,
      "Ġ194": 919,
      "Ġmin": 920,
      "iet": 921,
      "der": 922,
      "overn": 923,
      "Ġdid": 924,
      "ven": 925,
      "Ġgo": 926,
      "Ġcre": 927,
      "elf": 928,
      "olog": 929,
      "Ġimp": 930,
      "Ġdevelop": 931,
      "Ġmet": 932,
      "az": 933,
      "ities": 934,
      "ĠEng": 935,
      "Ġlong": 936,
      "iver": 937,
      "any": 938,
      "ll": 939,
      "ised": 940,
      "erm": 941,
      "ting": 942,
      "uch": 943,
      "ared": 944,
      "ann": 945,
      "ane": 946,
      "ird": 947,
      "Ġem": 948,
      "ĠJohn": 949,
      "Ġmill": 950,
      "ful": 951,
      "Ġair": 952,
      "Ġmat": 953,
      "Ġepisode": 954,
      "tend": 955,
      "irect": 956,
      "Ġsaid": 957,
      "Ġstud": 958,
      "Ġmany": 959,
      "ute": 960,
      "Ġbro": 961,
      "ash": 962,
      "ative": 963,
      "Ġdep": 964,
      "Ġcar": 965,
      "Ġ16": 966,
      "Ġcould": 967,
      "Ġorig": 968,
      "Ġwar": 969,
      "Ġcontin": 970,
      "ĠCl": 971,
      "Ġseveral": 972,
      "ĠAmerican": 973,
      "though": 974,
      "Ġdif": 975,
      "ĠInd": 976,
      "ield": 977,
      "ah": 978,
      "Ġinst": 979,
      "Ġpop": 980,
      "ouse": 981,
      "ise": 982,
      "emb": 983,
      "Ġknown": 984,
      "Ġ197": 985,
      "ty": 986,
      "ually": 987,
      "Ġ196": 988,
      "ĠAust": 989,
      "Ġ11": 990,
      "Ġconc": 991,
      "til": 992,
      "iam": 993,
      "ĠWar": 994,
      "view": 995,
      "erson": 996,
      "Ġob": 997,
      "ued": 998,
      "ĠGer": 999,
      "Ġsm": 1000,
      "Ġreturn": 1001,
      "Ġany": 1002,
      "Ġbegan": 1003,
      "ĠZ": 1004,
      "ern": 1005,
      "Ġcomple": 1006,
      "Ġdesign": 1007,
      "ĠDe": 1008,
      "Ġdesc": 1009,
      "Ġsign": 1010,
      "ople": 1011,
      "chool": 1012,
      "ross": 1013,
      "my": 1014,
      "ism": 1015,
      "oot": 1016,
      "Ġest": 1017,
      "Ġtrans": 1018,
      "ccess": 1019,
      "Ġprov": 1020,
      "aking": 1021,
      "Ġfeat": 1022,
      "ĠBl": 1023,
      "ided": 1024,
      "Ġinf": 1025,
      "anc": 1026,
      "Ġrun": 1027,
      "Ġearly": 1028,
      "Ġart": 1029,
      "ized": 1030,
      "Ġdist": 1031,
      "Ġmusic": 1032,
      "Ġown": 1033,
      "Ġnear": 1034,
      "Ġreleased": 1035,
      "Ġuntil": 1036,
      "Ġcalled": 1037,
      "Ġeff": 1038,
      "ĠCol": 1039,
      "imes": 1040,
      "ĠUS": 1041,
      "rid": 1042,
      "ists": 1043,
      "Ġresp": 1044,
      "une": 1045,
      "Ġbel": 1046,
      "enn": 1047,
      "Ġpass": 1048,
      "stem": 1049,
      "ured": 1050,
      "Ġfin": 1051,
      "ially": 1052,
      "ĠMay": 1053,
      "Ġph": 1054,
      "ution": 1055,
      "Ġdown": 1056,
      "Ġdisc": 1057,
      "ments": 1058,
      "Ġcrit": 1059,
      "osed": 1060,
      "xt": 1061,
      "Ġdirect": 1062,
      "Ġgener": 1063,
      "Ġalong": 1064,
      "ium": 1065,
      "Ġins": 1066,
      "Ġmillion": 1067,
      "ger": 1068,
      "ull": 1069,
      "ĠBritish": 1070,
      "ax": 1071,
      "Ġgroup": 1072,
      "Ġoffic": 1073,
      "vent": 1074,
      "ĠGerman": 1075,
      "Ġ13": 1076,
      "Ġfam": 1077,
      "eb": 1078,
      "Ġthese": 1079,
      "ajor": 1080,
      "Ġmod": 1081,
      "Ġmay": 1082,
      "Ġ$": 1083,
      "cept": 1084,
      "ĠAd": 1085,
      "Ġopen": 1086,
      "ange": 1087,
      "Ġmil": 1088,
      "ĠBe": 1089,
      "Ġpoin": 1090,
      "uc": 1091,
      "gg": 1092,
      "Ġland": 1093,
      "Ġsim": 1094,
      "Ġhist": 1095,
      "ĠAug": 1096,
      "Ġgovern": 1097,
      "Ã©": 1098,
      "ĠSept": 1099,
      "Ġsuccess": 1100,
      "ĠSeptember": 1101,
      "ĠAugust": 1102,
      "ets": 1103,
      "ĠAp": 1104,
      "ĠWorld": 1105,
      "ĠStates": 1106,
      "ible": 1107,
      "ink": 1108,
      "erv": 1109,
      "Ġgu": 1110,
      "Ġoper": 1111,
      "Ġcount": 1112,
      "Ġattack": 1113,
      "Ġuse": 1114,
      "Ġsame": 1115,
      "ys": 1116,
      "wards": 1117,
      "Ġdescrib": 1118,
      "Ġpeople": 1119,
      "ĠIs": 1120,
      "ĠFor": 1121,
      "aced": 1122,
      "Ġcharacter": 1123,
      "yp": 1124,
      "amed": 1125,
      "Ġbecause": 1126,
      "ĠAll": 1127,
      "els": 1128,
      "Ġvi": 1129,
      "Ġ14": 1130,
      "Ġlike": 1131,
      "Ġserv": 1132,
      "ĠJu": 1133,
      "ĠFran": 1134,
      "ged": 1135,
      "Ġaround": 1136,
      "Ġstart": 1137,
      "Ġthough": 1138,
      "Ġed": 1139,
      "Ġ195": 1140,
      "ĠPl": 1141,
      "ĠQ": 1142,
      "ner": 1143,
      "Ġwin": 1144,
      "Ġkm": 1145,
      "Ġconst": 1146,
      "ues": 1147,
      "ring": 1148,
      "Ġtook": 1149,
      "Ġocc": 1150,
      "ruct": 1151,
      "aving": 1152,
      "ĠAustral": 1153,
      "Ġbatt": 1154,
      "ĠOct": 1155,
      "Ġann": 1156,
      "Ġsupport": 1157,
      "ove": 1158,
      "ĠNov": 1159,
      "Ġfollowing": 1160,
      "Ġsix": 1161,
      "Ġnorth": 1162,
      "Ġele": 1163,
      "ĠCar": 1164,
      "Ġ193": 1165,
      "ĠHowever": 1166,
      "Ġsystem": 1167,
      "Ġappear": 1168,
      "uss": 1169,
      "Ġfinal": 1170,
      "Ġreceived": 1171,
      "Ġclass": 1172,
      "ined": 1173,
      "ĠOctober": 1174,
      "Ġhead": 1175,
      "ives": 1176,
      "Ġprom": 1177,
      "Ġconsid": 1178,
      "ene": 1179,
      "ants": 1180,
      "rad": 1181,
      "ling": 1182,
      "ility": 1183,
      "ically": 1184,
      "ĠDec": 1185,
      "ĠPro": 1186,
      "Ġ191": 1187,
      "Ġever": 1188,
      "Ġstate": 1189,
      "Ġbuild": 1190,
      "ret": 1191,
      "Ġeach": 1192,
      "anu": 1193,
      "Ġext": 1194,
      "Ġfive": 1195,
      "rist": 1196,
      "Ġaut": 1197,
      "rol": 1198,
      "ĠYork": 1199,
      "Ġcentury": 1200,
      "ina": 1201,
      "Ġvar": 1202,
      "Ġbo": 1203,
      "Ġwill": 1204,
      "Ġarea": 1205,
      "ĠThey": 1206,
      "ately": 1207,
      "Ġsmall": 1208,
      "get": 1209,
      "oss": 1210,
      "Ġpartic": 1211,
      "Ġlife": 1212,
      "ĠNorth": 1213,
      "iving": 1214,
      "ril": 1215,
      "Ġreport": 1216,
      "Ġ]": 1217,
      "ĠMe": 1218,
      "Ġ[": 1219,
      "tle": 1220,
      "ored": 1221,
      "ĠBy": 1222,
      "ĠJune": 1223,
      "ians": 1224,
      "ording": 1225,
      "Ġcity": 1226,
      "gin": 1227,
      "Ġmar": 1228,
      "ped": 1229,
      "ĠKing": 1230,
      "Ġmajor": 1231,
      "Ġweek": 1232,
      "Ġpublic": 1233,
      "ĠJuly": 1234,
      "Ġ%": 1235,
      "ission": 1236,
      "Ġconf": 1237,
      "ĠHar": 1238,
      "Ġband": 1239,
      "ection": 1240,
      "Ġref": 1241,
      "med": 1242,
      "ĠNovember": 1243,
      "inc": 1244,
      "urch": 1245,
      "Ġrest": 1246,
      "ĠComm": 1247,
      "ĠWill": 1248,
      "Ġworld": 1249,
      "ĠPh": 1250,
      "Ġmed": 1251,
      "Ġsince": 1252,
      "esp": 1253,
      "Ġsingle": 1254,
      "raft": 1255,
      "raph": 1256,
      "por": 1257,
      "ĠApril": 1258,
      "ble": 1259,
      "ĠMc": 1260,
      "ains": 1261,
      "ried": 1262,
      "lish": 1263,
      "Ġdet": 1264,
      "ĠMarch": 1265,
      "omet": 1266,
      "Ġjust": 1267,
      "Ġlast": 1268,
      "ected": 1269,
      "ural": 1270,
      "ional": 1271,
      "hest": 1272,
      "ĠEd": 1273,
      "aim": 1274,
      "Ġturn": 1275,
      "ively": 1276,
      "Ġhel": 1277,
      "ilt": 1278,
      "Ġallow": 1279,
      "Ġpo": 1280,
      "ĠCan": 1281,
      "Ġ30": 1282,
      "cl": 1283,
      "ient": 1284,
      "vious": 1285,
      "ĠGe": 1286,
      "Ġleft": 1287,
      "Ġlarge": 1288,
      "Ġline": 1289,
      "ats": 1290,
      "Ġdiffer": 1291,
      "ales": 1292,
      "ĠSouth": 1293,
      "Ġcare": 1294,
      "Ġsouth": 1295,
      "Ġadv": 1296,
      "ĠDuring": 1297,
      "ified": 1298,
      "Ġdr": 1299,
      "Ġstr": 1300,
      "Ġbook": 1301,
      "Ġvers": 1302,
      "empt": 1303,
      "Ġschool": 1304,
      "Ġsl": 1305,
      "ague": 1306,
      "ĠDecember": 1307,
      "Ġthird": 1308,
      "avy": 1309,
      "Ġincre": 1310,
      "Ġ25": 1311,
      "Ġmonth": 1312,
      "Ġdue": 1313,
      "Ġappro": 1314,
      "..": 1315,
      "Ġplayed": 1316,
      "Ġmuch": 1317,
      "Ġevent": 1318,
      "row": 1319,
      "ĠPr": 1320,
      "Ġif": 1321,
      "rote": 1322,
      "Ġanother": 1323,
      "ĠJanu": 1324,
      "Ġ192": 1325,
      "ĠJanuary": 1326,
      "Ġincluded": 1327,
      "Ġwhat": 1328,
      "Ġplace": 1329,
      "Ġbased": 1330,
      "Ġshort": 1331,
      "ne": 1332,
      "ĠII": 1333,
      "ony": 1334,
      "Ġexpl": 1335,
      "Ġgovernment": 1336,
      "Ġperson": 1337,
      "ball": 1338,
      "Ġwrote": 1339,
      "ĠWhen": 1340,
      "Ġtrack": 1341,
      "apan": 1342,
      "Ġcamp": 1343,
      "Ġtit": 1344,
      "Ġold": 1345,
      "ĠEu": 1346,
      "Ġbre": 1347,
      "alf": 1348,
      "Ġname": 1349,
      "Ġdeath": 1350,
      "Ġport": 1351,
      "Ġelect": 1352,
      "ently": 1353,
      "Ġ...": 1354,
      "ple": 1355,
      "rent": 1356,
      "ĠJapan": 1357,
      "ience": 1358,
      "Ġeng": 1359,
      "Ġwon": 1360,
      "by": 1361,
      "ĠOr": 1362,
      "Ġchild": 1363,
      "Ġprot": 1364,
      "Ġlit": 1365,
      "Ġkill": 1366,
      "Ġprog": 1367,
      "oad": 1368,
      "Ġstory": 1369,
      "ideo": 1370,
      "ages": 1371,
      "Ġpower": 1372,
      "ĠBro": 1373,
      "Ġreview": 1374,
      "ĠTe": 1375,
      "ody": 1376,
      "Ġvis": 1377,
      "ital": 1378,
      "Ġhome": 1379,
      "ott": 1380,
      "Ġled": 1381,
      "ps": 1382,
      "Ġdescribed": 1383,
      "eng": 1384,
      "Ġrequ": 1385,
      "oman": 1386,
      "Ġprevious": 1387,
      "Ġfamily": 1388,
      "Ġgun": 1389,
      "rand": 1390,
      "tain": 1391,
      "Ġway": 1392,
      "yl": 1393,
      "Ġnamed": 1394,
      "Ġright": 1395,
      "Ġnow": 1396,
      "ĠMus": 1397,
      "Ġdem": 1398,
      "urther": 1399,
      "iod": 1400,
      "iven": 1401,
      "Ġmen": 1402,
      "ilar": 1403,
      "Ġeven": 1404,
      "Ġmake": 1405,
      "embers": 1406,
      "Ġorgan": 1407,
      "ĠGu": 1408,
      "reen": 1409,
      "ister": 1410,
      "ont": 1411,
      "cy": 1412,
      "iversity": 1413,
      "omin": 1414,
      "Ġattempt": 1415,
      "Ġbest": 1416,
      "itions": 1417,
      "Ġ100": 1418,
      "Ġcour": 1419,
      "ĠÂ": 1420,
      "Ġrepl": 1421,
      "ivision": 1422,
      "Ġopp": 1423,
      "Ġleg": 1424,
      "rench": 1425,
      "Ġgames": 1426,
      "ior": 1427,
      "ached": 1428,
      "Ġterm": 1429,
      "ĠAnd": 1430,
      "Ġcommand": 1431,
      "ival": 1432,
      "Ġhand": 1433,
      "ĠFl": 1434,
      "Ġposs": 1435,
      "mp": 1436,
      "Ġbelie": 1437,
      "Ġdam": 1438,
      "Ġvery": 1439,
      "ox": 1440,
      "ĠHis": 1441,
      "Ġthose": 1442,
      "ĠFeb": 1443,
      "ĠEurop": 1444,
      "Ġpar": 1445,
      "ĠFebru": 1446,
      "ĠFebruary": 1447,
      "sh": 1448,
      "Ġiss": 1449,
      "Ġstill": 1450,
      "Ġtop": 1451,
      "Ġnext": 1452,
      "Ġspecies": 1453,
      "ĠChrist": 1454,
      "Ġeffect": 1455,
      "riend": 1456,
      "Ġview": 1457,
      "ched": 1458,
      "ĠThere": 1459,
      "ĠNational": 1460,
      "oci": 1461,
      "Ġoriginal": 1462,
      "aken": 1463,
      "ĠWe": 1464,
      "ature": 1465,
      "ences": 1466,
      "Ġspe": 1467,
      "lu": 1468,
      "Ġwater": 1469,
      "ness": 1470,
      "Ġaddition": 1471,
      "Ġjoin": 1472,
      "ĠBar": 1473,
      "ĠEurope": 1474,
      "Ġlist": 1475,
      "au": 1476,
      "Ġperiod": 1477,
      "Ġwithin": 1478,
      "alk": 1479,
      "Ġmembers": 1480,
      "Ġmark": 1481,
      "eter": 1482,
      "Ġdeb": 1483,
      "Ġheld": 1484,
      "Ġbuilt": 1485,
      "ĠFrench": 1486,
      "Ġexper": 1487,
      "hor": 1488,
      "af": 1489,
      "ĠAm": 1490,
      "Ġ2010": 1491,
      "Ġrelease": 1492,
      "ĠPar": 1493,
      "Ġlate": 1494,
      "Ġalthough": 1495,
      "Ġformer": 1496,
      "rew": 1497,
      "Ġmatch": 1498,
      "Ġgreat": 1499,
      "augh": 1500,
      "ridge": 1501,
      "ney": 1502,
      "Ġcur": 1503,
      "Ġdest": 1504,
      "Ġsold": 1505,
      "uted": 1506,
      "tended": 1507,
      "Ġvideo": 1508,
      "Ġ21": 1509,
      "ards": 1510,
      "Ġcaus": 1511,
      "ĠWest": 1512,
      "line": 1513,
      "Ġstorm": 1514,
      "Ġcover": 1515,
      "ĠX": 1516,
      "ves": 1517,
      "ech": 1518,
      "Ġinit": 1519,
      "Ġrole": 1520,
      "ropical": 1521,
      "Ġtri": 1522,
      "ĠWilliam": 1523,
      "self": 1524,
      "Ġcame": 1525,
      "Ġestab": 1526,
      "hel": 1527,
      "ĠHer": 1528,
      "Ġdays": 1529,
      "ances": 1530,
      "Ġresult": 1531,
      "Ġmid": 1532,
      "Ġpresent": 1533,
      "na": 1534,
      "lev": 1535,
      "Ġcontrol": 1536,
      "aged": 1537,
      "ption": 1538,
      "oon": 1539,
      "ulation": 1540,
      "Ġstand": 1541,
      "Ġreal": 1542,
      "Ġpolit": 1543,
      "Ġhowever": 1544,
      "ĠMin": 1545,
      "itary": 1546,
      "aster": 1547,
      "ham": 1548,
      "Ġ2008": 1549,
      "Ġprop": 1550,
      "let": 1551,
      "ense": 1552,
      "Ġ2009": 1553,
      "ĠMan": 1554,
      "atic": 1555,
      "ides": 1556,
      "Ġfew": 1557,
      "Ġtown": 1558,
      "Ġ24": 1559,
      "Ġwind": 1560,
      "ĠGeor": 1561,
      "omb": 1562,
      "Ġyou": 1563,
      "ograph": 1564,
      "Ġtw": 1565,
      "Ġside": 1566,
      "Ġsk": 1567,
      "Ġcontinued": 1568,
      "Ġoften": 1569,
      "Ġequ": 1570,
      "Ġpost": 1571,
      "ĠEar": 1572,
      "ays": 1573,
      "Ġlocal": 1574,
      "Ġ2011": 1575,
      "elt": 1576,
      "ĠChar": 1577,
      "ator": 1578,
      "Ġamong": 1579,
      "ĠAir": 1580,
      "Ġsimilar": 1581,
      "ruction": 1582,
      "ead": 1583,
      "ches": 1584,
      "ĠMich": 1585,
      "ract": 1586,
      "Ġhum": 1587,
      "Ġav": 1588,
      "Ġclaim": 1589,
      "estern": 1590,
      "ĠNo": 1591,
      "omen": 1592,
      "ung": 1593,
      "Ġ&": 1594,
      "ĠEngland": 1595,
      "reet": 1596,
      "read": 1597,
      "akes": 1598,
      "Ġdifferent": 1599,
      "side": 1600,
      "ese": 1601,
      "ops": 1602,
      "Ġmy": 1603,
      "Ġdel": 1604,
      "ler": 1605,
      "Ġbeh": 1606,
      "ĠRec": 1607,
      "ology": 1608,
      "par": 1609,
      "Ġtyp": 1610,
      "Ġ22": 1611,
      "Ġfurther": 1612,
      "Ġsent": 1613,
      "esc": 1614,
      "ĠDav": 1615,
      "ots": 1616,
      "ested": 1617,
      "Ġlevel": 1618,
      "urs": 1619,
      "Ġfre": 1620,
      "Ġconsidered": 1621,
      "Ġtake": 1622,
      "Ġlaw": 1623,
      "ery": 1624,
      "ĠEl": 1625,
      "Ġtot": 1626,
      "Ġ2007": 1627,
      "gy": 1628,
      "Ġcareer": 1629,
      "ĠOne": 1630,
      "ront": 1631,
      "Ġproduction": 1632,
      "arm": 1633,
      "me": 1634,
      "Ġhalf": 1635,
      "ices": 1636,
      "ĠPark": 1637,
      "ĠCo": 1638,
      "Ġant": 1639,
      "ĠCity": 1640,
      "Ġhaving": 1641,
      "ampions": 1642,
      "bo": 1643,
      "ĠAcc": 1644,
      "ĠEnglish": 1645,
      "Ġmag": 1646,
      "Ġroad": 1647,
      "Ġeast": 1648,
      "Ġmoved": 1649,
      "Ġdra": 1650,
      "ering": 1651,
      "Ġevery": 1652,
      "Ġwest": 1653,
      "Ġwithout": 1654,
      "ĠAlthough": 1655,
      "rodu": 1656,
      "Ġcr": 1657,
      "ĠCent": 1658,
      "Ġappe": 1659,
      "Ġplan": 1660,
      "Ġplayer": 1661,
      "Ġ2012": 1662,
      "ining": 1663,
      "Ġposition": 1664,
      "Ġcor": 1665,
      "Ġbecome": 1666,
      "Ġarr": 1667,
      "Ġhistory": 1668,
      "Ġversion": 1669,
      "vers": 1670,
      "Ġtro": 1671,
      "ĠCal": 1672,
      "ford": 1673,
      "ĠAng": 1674,
      "ondon": 1675,
      "ones": 1676,
      "Ġcast": 1677,
      "ĠCount": 1678,
      "Ġel": 1679,
      "Ġinflu": 1680,
      "ize": 1681,
      "Ġarm": 1682,
      "Ġ23": 1683,
      "ĠLondon": 1684,
      "Ġhouse": 1685,
      "yle": 1686,
      "Ġsound": 1687,
      "rig": 1688,
      "Ġfore": 1689,
      "Ġcommun": 1690,
      "resent": 1691,
      "irc": 1692,
      "app": 1693,
      "ĠBatt": 1694,
      "Ġgr": 1695,
      "Ġclub": 1696,
      "Ġsugg": 1697,
      "roy": 1698,
      "aul": 1699,
      "atter": 1700,
      "Ġstrong": 1701,
      "Ġinvol": 1702,
      "ai": 1703,
      "Ġwritten": 1704,
      "Ġ190": 1705,
      "aining": 1706,
      "ĠWith": 1707,
      "Ġbas": 1708,
      "Ġstat": 1709,
      "Ġless": 1710,
      "oung": 1711,
      "utes": 1712,
      "Ġannoun": 1713,
      "rest": 1714,
      "Ġfoot": 1715,
      "ĠRiver": 1716,
      "iqu": 1717,
      "ald": 1718,
      "Ġorder": 1719,
      "Ġrefer": 1720,
      "iety": 1721,
      "iment": 1722,
      "ges": 1723,
      "Ġprof": 1724,
      "craft": 1725,
      "ĠCanad": 1726,
      "ae": 1727,
      "Ġaff": 1728,
      "Ġpoint": 1729,
      "sequ": 1730,
      "Ġtem": 1731,
      "Ġgiven": 1732,
      "Ġrad": 1733,
      "Ġlow": 1734,
      "Ġtrad": 1735,
      "Ġhig": 1736,
      "Ġwant": 1737,
      "ĠGener": 1738,
      "ĠUniversity": 1739,
      "ille": 1740,
      "Ġke": 1741,
      "Ġgave": 1742,
      "Ġpat": 1743,
      "uck": 1744,
      "isc": 1745,
      "Ġimport": 1746,
      "ĠPol": 1747,
      "Ġnever": 1748,
      "aff": 1749,
      "ĠWhile": 1750,
      "Ġchang": 1751,
      "Ġdefe": 1752,
      "ories": 1753,
      "Ġsoc": 1754,
      "Ġreturned": 1755,
      "ration": 1756,
      "ĠAb": 1757,
      "Ġvict": 1758,
      "Ġtotal": 1759,
      "Ġfact": 1760,
      "ĠHigh": 1761,
      "Ġgood": 1762,
      "ention": 1763,
      "ĠTr": 1764,
      "Ġcompany": 1765,
      "Ġfire": 1766,
      "sp": 1767,
      "ailed": 1768,
      "Ġcountry": 1769,
      "Ġwent": 1770,
      "ison": 1771,
      "Ġcomb": 1772,
      "cess": 1773,
      "Ġfriend": 1774,
      "ours": 1775,
      "rick": 1776,
      "ĠEx": 1777,
      "Ġcapt": 1778,
      "Ġpublished": 1779,
      "aun": 1780,
      "Ġproduced": 1781,
      "levision": 1782,
      "Ġfind": 1783,
      "aying": 1784,
      "con": 1785,
      "Ġreported": 1786,
      "Ġorigin": 1787,
      "ĠSm": 1788,
      "Ġ2006": 1789,
      "aign": 1790,
      "Ġlost": 1791,
      "Ġstated": 1792,
      "Ġcommon": 1793,
      "Ġprogram": 1794,
      "ington": 1795,
      "Ġlight": 1796,
      "yn": 1797,
      "Ġparticular": 1798,
      "ape": 1799,
      "Ġord": 1800,
      "echn": 1801,
      "Ġadm": 1802,
      "Ġinclude": 1803,
      "ests": 1804,
      "ĠAccording": 1805,
      "Ġlarg": 1806,
      "ably": 1807,
      "urric": 1808,
      "Ġcompet": 1809,
      "Ġer": 1810,
      "used": 1811,
      "Ġrecorded": 1812,
      "ief": 1813,
      "Ġbuilding": 1814,
      "Ġpress": 1815,
      "ĠSte": 1816,
      "Ġneed": 1817,
      "ĠNe": 1818,
      "Ġbus": 1819,
      "Ġproject": 1820,
      "hing": 1821,
      "Ġforces": 1822,
      "ument": 1823,
      "Ġnort": 1824,
      "Ġ27": 1825,
      "Ġships": 1826,
      "Ġshould": 1827,
      "Ġusing": 1828,
      "Ġeight": 1829,
      "Ġ50": 1830,
      "Ġ28": 1831,
      "Ġperformance": 1832,
      "iness": 1833,
      "ĠSw": 1834,
      "Ġservice": 1835,
      "bs": 1836,
      "Ġpopular": 1837,
      "Ġide": 1838,
      "ploy": 1839,
      "ĠThese": 1840,
      "Ġtimes": 1841,
      "osp": 1842,
      "Ġmaking": 1843,
      "Ġten": 1844,
      "Ġaircraft": 1845,
      "Ġhimself": 1846,
      "oyal": 1847,
      "Ġfun": 1848,
      "Ġauthor": 1849,
      "Ġ2013": 1850,
      "Ġfather": 1851,
      "atch": 1852,
      "Ġmilitary": 1853,
      "ĠAustralia": 1854,
      "ĠSec": 1855,
      "Ġanim": 1856,
      "lear": 1857,
      "Ġbattle": 1858,
      "ampionship": 1859,
      "ned": 1860,
      "ĠJack": 1861,
      "ĠAss": 1862,
      "Ġsit": 1863,
      "Ġlim": 1864,
      "Ġsongs": 1865,
      "Ġsomet": 1866,
      "Ġread": 1867,
      "ĠAf": 1868,
      "outher": 1869,
      "Ġcritic": 1870,
      "ensive": 1871,
      "ither": 1872,
      "ords": 1873,
      "Ġdevelopment": 1874,
      "Ġsw": 1875,
      "Ġhow": 1876,
      "Ġgl": 1877,
      "Ġ40": 1878,
      "ĠGeneral": 1879,
      "alth": 1880,
      "eth": 1881,
      "Ġsol": 1882,
      "itive": 1883,
      "eder": 1884,
      "ases": 1885,
      "quad": 1886,
      "Ġ26": 1887,
      "ĠState": 1888,
      "oll": 1889,
      "ĠCor": 1890,
      "outhern": 1891,
      "ĠJames": 1892,
      "Ġcross": 1893,
      "cer": 1894,
      "Ġ189": 1895,
      "amb": 1896,
      "Ġrepresent": 1897,
      "ĠSy": 1898,
      "Ġground": 1899,
      "Ġdestroy": 1900,
      "acy": 1901,
      "Ġstar": 1902,
      "Ġft": 1903,
      "Ġremained": 1904,
      "astern": 1905,
      "Ġste": 1906,
      "ks": 1907,
      "rie": 1908,
      "Ġcharacters": 1909,
      "ĠArmy": 1910,
      "Ġnational": 1911,
      "ĠPres": 1912,
      "Ġget": 1913,
      "ries": 1914,
      "work": 1915,
      "Ġmonths": 1916,
      "Ġsuff": 1917,
      "Ġgen": 1918,
      "ĠBo": 1919,
      "Ġdied": 1920,
      "aur": 1921,
      "Ġter": 1922,
      "ĠGl": 1923,
      "ĠComp": 1924,
      "ublic": 1925,
      "Ġdeveloped": 1926,
      "Ġtitle": 1927,
      "dom": 1928,
      "Ġsum": 1929,
      "Ġchart": 1930,
      "fic": 1931,
      "Ġcampaign": 1932,
      "ream": 1933,
      "urricane": 1934,
      "Ġforce": 1935,
      "ĠLeague": 1936,
      "Ġchildren": 1937,
      "Ġintrodu": 1938,
      "lands": 1939,
      "ency": 1940,
      "Ġpra": 1941,
      "Ġtour": 1942,
      "Ġpromot": 1943,
      "itted": 1944,
      "isted": 1945,
      "ael": 1946,
      "Ġson": 1947,
      "Ġsignific": 1948,
      "Ġred": 1949,
      "Ġacross": 1950,
      "Ġaway": 1951,
      "ression": 1952,
      "hern": 1953,
      "Ġrelations": 1954,
      "Ġobs": 1955,
      "Ġhistor": 1956,
      "Ġfield": 1957,
      "Ġofficial": 1958,
      "ĠDivision": 1959,
      "Ġfav": 1960,
      "Ġfelt": 1961,
      "ole": 1962,
      "lege": 1963,
      "ĠAmerica": 1964,
      "Ġnoted": 1965,
      "Ġfac": 1966,
      "ĠSim": 1967,
      "Ġnight": 1968,
      "alt": 1969,
      "Ġannounced": 1970,
      "most": 1971,
      "Ġreached": 1972,
      "ĠRuss": 1973,
      "Ġintern": 1974,
      "ĠSup": 1975,
      "Ġcreated": 1976,
      "ĠCounty": 1977,
      "Ġareas": 1978,
      "com": 1979,
      "ĠRep": 1980,
      "ĠMon": 1981,
      "Ġtelevision": 1982,
      "Ġcoun": 1983,
      "Ġ2005": 1984,
      "ĠRoad": 1985,
      "ĠJapanese": 1986,
      "Ġstation": 1987,
      "hem": 1988,
      "ressed": 1989,
      "Ġsuccessful": 1990,
      "ĠMad": 1991,
      "Ġrock": 1992,
      "imately": 1993,
      "Ġval": 1994,
      "ĠGr": 1995,
      "ĠReg": 1996,
      "ising": 1997,
      "Ġvarious": 1998,
      "ĠâĢĻ": 1999,
      "Ġbar": 2000,
      "ĠStreet": 2001,
      "Ġpolitical": 2002,
      "Ġseen": 2003,
      "Ġfollowed": 2004,
      "Ġaver": 2005,
      "field": 2006,
      "iber": 2007,
      "iting": 2008,
      "Ġtoo": 2009,
      "Ġ29": 2010,
      "Ġrank": 2011,
      "ett": 2012,
      "ĠEast": 2013,
      "ope": 2014,
      "Ġperformed": 2015,
      "cast": 2016,
      "ĠRober": 2017,
      "Ġcult": 2018,
      "ization": 2019,
      "Ġserved": 2020,
      "Ġ2014": 2021,
      "Ġplayers": 2022,
      "Ġfront": 2023,
      "reg": 2024,
      "Ġrev": 2025,
      "ality": 2026,
      "ĠGeorge": 2027,
      "Ġcond": 2028,
      "Ġfull": 2029,
      "Ġprim": 2030,
      "Ġdecl": 2031,
      "Ġblack": 2032,
      "ination": 2033,
      "elling": 2034,
      "Ġbegin": 2035,
      "duct": 2036,
      "Ġfle": 2037,
      "Ġput": 2038,
      "ĠSer": 2039,
      "Ġcirc": 2040,
      "Ġconv": 2041,
      "Ġearl": 2042,
      "ĠPer": 2043,
      "olution": 2044,
      "ĠTo": 2045,
      "ĠHen": 2046,
      "Ġcost": 2047,
      "abor": 2048,
      "idence": 2049,
      "Ġsee": 2050,
      "Ġprocess": 2051,
      "Ġnon": 2052,
      "Ġdiv": 2053,
      "Ġstyle": 2054,
      "ying": 2055,
      "Ġlook": 2056,
      "ĠPhil": 2057,
      "Ġseven": 2058,
      "Ġvol": 2059,
      "Ġaud": 2060,
      "Ġkilled": 2061,
      "ĠEm": 2062,
      "Ġcy": 2063,
      "Ġhelp": 2064,
      "rict": 2065,
      "Ġlet": 2066,
      "lished": 2067,
      "play": 2068,
      "Ġthroughout": 2069,
      "ĠBill": 2070,
      "Ġtaken": 2071,
      "Ġtropical": 2072,
      "Ġable": 2073,
      "ana": 2074,
      "Ġfight": 2075,
      "Ġdiscover": 2076,
      "Ġagre": 2077,
      "ecut": 2078,
      "ertain": 2079,
      "Ġlittle": 2080,
      "Ġwid": 2081,
      "Ġbecom": 2082,
      "Ġfem": 2083,
      "Ġage": 2084,
      "urg": 2085,
      "Ġsignificant": 2086,
      "ĠSch": 2087,
      "Ġhit": 2088,
      "Ġmeet": 2089,
      "Ġident": 2090,
      "ĠThom": 2091,
      "ways": 2092,
      "irl": 2093,
      "Ġtechn": 2094,
      "Ġspecial": 2095,
      "Ġcop": 2096,
      "oice": 2097,
      "Ġwriting": 2098,
      "Ġstruct": 2099,
      "ĠDavid": 2100,
      "Ġthought": 2101,
      "Ġestablished": 2102,
      "ĠPart": 2103,
      "Ġbroad": 2104,
      "ĠAct": 2105,
      "enced": 2106,
      "ĠMor": 2107,
      "Ġmm": 2108,
      "Ġappeared": 2109,
      "Ġdoes": 2110,
      "Ġcoll": 2111,
      "Ġentire": 2112,
      "ĠAustralian": 2113,
      "aval": 2114,
      "cil": 2115,
      "epend": 2116,
      "Ġyoung": 2117,
      "Ġcoast": 2118,
      "Ġpoints": 2119,
      "Ġ!": 2120,
      "Ġmiles": 2121,
      "ius": 2122,
      "Ġbody": 2123,
      "Ġaward": 2124,
      "less": 2125,
      "Ġimpro": 2126,
      "ĠRich": 2127,
      "Ġroute": 2128,
      "Ġmember": 2129,
      "odes": 2130,
      "ought": 2131,
      "ĠMed": 2132,
      "ground": 2133,
      "ript": 2134,
      "Ġwomen": 2135,
      "Ġactiv": 2136,
      "Ġrange": 2137,
      "ster": 2138,
      "ask": 2139,
      "ĠPe": 2140,
      "ivil": 2141,
      "ĠYou": 2142,
      "Ġcaused": 2143,
      "Ġstarted": 2144,
      "Ġdecided": 2145,
      "iers": 2146,
      "blem": 2147,
      "Ġfeatures": 2148,
      "lected": 2149,
      "day": 2150,
      "ĠAfric": 2151,
      "Ġgeneral": 2152,
      "Ġpain": 2153,
      "ĠQu": 2154,
      "Ġeventually": 2155,
      "ators": 2156,
      "iron": 2157,
      "iec": 2158,
      "int": 2159,
      "umb": 2160,
      "men": 2161,
      "conom": 2162,
      "oph": 2163,
      "ogn": 2164,
      "uk": 2165,
      "den": 2166,
      "ĠRoyal": 2167,
      "Ġrace": 2168,
      "Ġarch": 2169,
      "Ġvot": 2170,
      "here": 2171,
      "itar": 2172,
      "Ġgrow": 2173,
      "Ġmanag": 2174,
      "Ġfeet": 2175,
      "pped": 2176,
      "rison": 2177,
      "Ġtoget": 2178,
      "Ġtogether": 2179,
      "ush": 2180,
      "Ġadded": 2181,
      "ĠHist": 2182,
      "ĠHouse": 2183,
      "Ġtre": 2184,
      "Ġhold": 2185,
      "bert": 2186,
      "Ġcut": 2187,
      "ivid": 2188,
      "Ġ188": 2189,
      "Ġwhite": 2190,
      "Ġonce": 2191,
      "Ġnov": 2192,
      "ample": 2193,
      "ament": 2194,
      "Ġformed": 2195,
      "Ġarg": 2196,
      "Ġlocated": 2197,
      "Ġstri": 2198,
      "reek": 2199,
      "urb": 2200,
      "Ġconn": 2201,
      "Ġmodern": 2202,
      "off": 2203,
      "ĠBlack": 2204,
      "Ġenc": 2205,
      "Ġinstead": 2206,
      "dle": 2207,
      "ĠPort": 2208,
      "head": 2209,
      "rought": 2210,
      "aces": 2211,
      "Ġround": 2212,
      "Ġesc": 2213,
      "Ġ31": 2214,
      "Ġball": 2215,
      "ara": 2216,
      "Ġmix": 2217,
      "emy": 2218,
      "ĠIntern": 2219,
      "Ġimportant": 2220,
      "ee": 2221,
      "Ġpri": 2222,
      "cing": 2223,
      "Ġcrew": 2224,
      "Ġsaw": 2225,
      "Ġaction": 2226,
      "Ġcompleted": 2227,
      "Ġredu": 2228,
      "ĠItal": 2229,
      "Ġplaying": 2230,
      "ects": 2231,
      "ĠIndian": 2232,
      "ids": 2233,
      "oney": 2234,
      "cent": 2235,
      "rated": 2236,
      "ĠOther": 2237,
      "ells": 2238,
      "Ġ2004": 2239,
      "ata": 2240,
      "Ġinsp": 2241,
      "Ġbase": 2242,
      "Ġmater": 2243,
      "Ġpopulation": 2244,
      "ĠMy": 2245,
      "Ġmot": 2246,
      "Ġsurv": 2247,
      "ĠMichael": 2248,
      "Ġvoc": 2249,
      "Ġask": 2250,
      "Ġrather": 2251,
      "Ġoccur": 2252,
      "Ġopened": 2253,
      "Ġstage": 2254,
      "Ġbehind": 2255,
      "Ġothers": 2256,
      "Ġ186": 2257,
      "ray": 2258,
      "Ġfall": 2259,
      "Ġren": 2260,
      "Ġguns": 2261,
      "asing": 2262,
      "ceed": 2263,
      "Ġbrother": 2264,
      "wood": 2265,
      "ements": 2266,
      "igned": 2267,
      "Ġcomment": 2268,
      "lin": 2269,
      "Ġlik": 2270,
      "stit": 2271,
      "Ġborn": 2272,
      "Ġfif": 2273,
      "Ġ2015": 2274,
      "Ġsite": 2275,
      "Ġlive": 2276,
      "Ġworks": 2277,
      "Ġloss": 2278,
      "ĠFrance": 2279,
      "Ġbomb": 2280,
      "Ġworked": 2281,
      "ficult": 2282,
      "Ġheavy": 2283,
      "Ġmiss": 2284,
      "Ġpred": 2285,
      "Ã¡": 2286,
      "ĠSchool": 2287,
      "medi": 2288,
      "rap": 2289,
      "Ġsubsequ": 2290,
      "Ġlack": 2291,
      "Ġparty": 2292,
      "Ġproblem": 2293,
      "nder": 2294,
      "lection": 2295,
      "Ġdifficult": 2296,
      "Ġclose": 2297,
      "ĠWash": 2298,
      "Ġconstruction": 2299,
      "Ġknow": 2300,
      "ĠNor": 2301,
      "ĠSome": 2302,
      "Ġrelationship": 2303,
      "Ġhost": 2304,
      "Ġweeks": 2305,
      "istic": 2306,
      "ĠSan": 2307,
      "Ġoriginally": 2308,
      "Ġsepar": 2309,
      "Ġassoci": 2310,
      "arch": 2311,
      "co": 2312,
      "Ġupon": 2313,
      "Ġpract": 2314,
      "Ġreb": 2315,
      "ĠHenry": 2316,
      "Ġleading": 2317,
      "Ġappoin": 2318,
      "Ġaccom": 2319,
      "Ġvill": 2320,
      "Ġalmost": 2321,
      "Ġmer": 2322,
      "ĠRobert": 2323,
      "orts": 2324,
      "Ġpeak": 2325,
      "ĠAle": 2326,
      "Ġinj": 2327,
      "Ġdamage": 2328,
      "lic": 2329,
      "unk": 2330,
      "Ġscored": 2331,
      "Ġfourth": 2332,
      "osition": 2333,
      "Ġinform": 2334,
      "Ġ2000": 2335,
      "Ġreve": 2336,
      "ĠMusic": 2337,
      "aps": 2338,
      "Ġprovided": 2339,
      "ĠBest": 2340,
      "ming": 2341,
      "Ġcase": 2342,
      "ĠVir": 2343,
      "ĠStar": 2344,
      "Ġgoal": 2345,
      "Ġclos": 2346,
      "ĠBattle": 2347,
      "board": 2348,
      "Ġengine": 2349,
      "Ġcreat": 2350,
      "ĠRed": 2351,
      "Ġaccept": 2352,
      "Ġmi": 2353,
      "Ġinvest": 2354,
      "ica": 2355,
      "oring": 2356,
      "Ġscene": 2357,
      "ellow": 2358,
      "ĠDesp": 2359,
      "Ġhuman": 2360,
      "angu": 2361,
      "ule": 2362,
      "ino": 2363,
      "ological": 2364,
      "Ġbrought": 2365,
      "Ġ500": 2366,
      "Ġfree": 2367,
      "Ġindivid": 2368,
      "Ġ187": 2369,
      "ĠPaul": 2370,
      "Ġfeatured": 2371,
      "ula": 2372,
      "Ġmother": 2373,
      "ĠPresident": 2374,
      "ĠRou": 2375,
      "Ġking": 2376,
      "Ġleast": 2377,
      "ama": 2378,
      "Ġworking": 2379,
      "aut": 2380,
      "Ġallowed": 2381,
      "Ġlaun": 2382,
      "Ġresul": 2383,
      "ĠMil": 2384,
      "Ġaverage": 2385,
      "ĠCap": 2386,
      "Ġtowards": 2387,
      "Ġwanted": 2388,
      "Ġmult": 2389,
      "Ġindust": 2390,
      "Ġtradition": 2391,
      "aves": 2392,
      "Ġregion": 2393,
      "Ġbusiness": 2394,
      "ĠWashington": 2395,
      "ĠHol": 2396,
      "iding": 2397,
      "azine": 2398,
      "ĠAg": 2399,
      "ĠQue": 2400,
      "Ġve": 2401,
      "Ġquick": 2402,
      "Ġtroops": 2403,
      "Ġplaced": 2404,
      "Ġeither": 2405,
      "Ġce": 2406,
      "Ġrespect": 2407,
      "ving": 2408,
      "Ġoffice": 2409,
      "Ġcritics": 2410,
      "ky": 2411,
      "ĠBel": 2412,
      "Ġavail": 2413,
      "Ġhon": 2414,
      "antic": 2415,
      "Ġreach": 2416,
      "ĠÃ": 2417,
      "Ġprofess": 2418,
      "Ġexample": 2419,
      "Ġruns": 2420,
      "Ġmaterial": 2421,
      "Ġeconom": 2422,
      "Ġrecogn": 2423,
      "Ġfar": 2424,
      "ened": 2425,
      "Ġwife": 2426,
      "ze": 2427,
      "go": 2428,
      "earch": 2429,
      "to": 2430,
      "chie": 2431,
      "Ġneg": 2432,
      "Ġestim": 2433,
      "ential": 2434,
      "Ġarmy": 2435,
      "Ġfoc": 2436,
      "right": 2437,
      "ĠDespite": 2438,
      "Ġsex": 2439,
      "Ġ2003": 2440,
      "Ġinterest": 2441,
      "ĠFollow": 2442,
      "ĠCour": 2443,
      "Ġsour": 2444,
      "ength": 2445,
      "Ġgenerally": 2446,
      "Ġmass": 2447,
      "Ġjoined": 2448,
      "Ġdou": 2449,
      "Ġrail": 2450,
      "quadron": 2451,
      "ĠHam": 2452,
      "Ġproper": 2453,
      "ills": 2454,
      "ĠAngel": 2455,
      "uff": 2456,
      "enes": 2457,
      "Ġcurrent": 2458,
      "Ġdev": 2459,
      "ourn": 2460,
      "ĠHall": 2461,
      "ĠCup": 2462,
      "Ġevents": 2463,
      "Ġbelieved": 2464,
      "ĠGame": 2465,
      "itch": 2466,
      "of": 2467,
      "Ġparticip": 2468,
      "Ġ35": 2469,
      "rey": 2470,
      "be": 2471,
      "Ġfig": 2472,
      "ĠFollowing": 2473,
      "ĠKe": 2474,
      "ville": 2475,
      "ĠFirst": 2476,
      "ĠMary": 2477,
      "ĠDr": 2478,
      "Ġz": 2479,
      "Ġvictory": 2480,
      "Ġreplaced": 2481,
      "ĠLou": 2482,
      "ĠGreat": 2483,
      "artment": 2484,
      "Ġdesigned": 2485,
      "Ġmph": 2486,
      "iction": 2487,
      "Ġgrad": 2488,
      "ĠJe": 2489,
      "Ġrul": 2490,
      "itte": 2491,
      "Ġsoon": 2492,
      "Ġnomin": 2493,
      "sc": 2494,
      "Ġisland": 2495,
      "ĠGro": 2496,
      "Ġfund": 2497,
      "xic": 2498,
      "ĠLa": 2499,
      "erous": 2500,
      "oor": 2501,
      "Ġhours": 2502,
      "ĠEuropean": 2503,
      "ĠTwo": 2504,
      "Ġemploy": 2505,
      "Ġpresident": 2506,
      "ĠMal": 2507,
      "Ġroom": 2508,
      "ification": 2509,
      "Ġinvolved": 2510,
      "aled": 2511,
      "uel": 2512,
      "Ġsurf": 2513,
      "val": 2514,
      "aper": 2515,
      "Ġfinished": 2516,
      "merc": 2517,
      "Ġstru": 2518,
      "ĠChampionship": 2519,
      "inn": 2520,
      "inist": 2521,
      "asion": 2522,
      "west": 2523,
      "ĠMart": 2524,
      "inf": 2525,
      "ĠPlay": 2526,
      "Ġbreak": 2527,
      "ĠRoman": 2528,
      "Ġhor": 2529,
      "rain": 2530,
      "aren": 2531,
      "iff": 2532,
      "Ġsaying": 2533,
      "arn": 2534,
      "emor": 2535,
      "Ġcourt": 2536,
      "Ġshot": 2537,
      "Ġthreat": 2538,
      "ĠBer": 2539,
      "Ġscore": 2540,
      "Ġopening": 2541,
      "Ġregular": 2542,
      "ĠDan": 2543,
      "BC": 2544,
      "Ġdesp": 2545,
      "Ġdirector": 2546,
      "Ġlength": 2547,
      "ĠMet": 2548,
      "ĠMac": 2549,
      "ĠDon": 2550,
      "Ġindic": 2551,
      "ades": 2552,
      "leg": 2553,
      "cher": 2554,
      "ĠScott": 2555,
      "Ġconduct": 2556,
      "Ġlargest": 2557,
      "Ġcontrib": 2558,
      "Ġtravel": 2559,
      "Ġhom": 2560,
      "oul": 2561,
      "ki": 2562,
      "Ġpossible": 2563,
      "ecutive": 2564,
      "Ġill": 2565,
      "ude": 2566,
      "now": 2567,
      "Ġminutes": 2568,
      "Ġhighway": 2569,
      "ĠRoute": 2570,
      "Ġsouthern": 2571,
      "ishing": 2572,
      "Ġdro": 2573,
      "ĠCro": 2574,
      "Ġhy": 2575,
      "ĠVal": 2576,
      "icle": 2577,
      "Ġhighest": 2578,
      "Ġremov": 2579,
      "ĠFrom": 2580,
      "Ġearlier": 2581,
      "Ġ2001": 2582,
      "Ġtest": 2583,
      "ĠAtl": 2584,
      "Ġinitially": 2585,
      "ĠSing": 2586,
      "ago": 2587,
      "Ġly": 2588,
      "Ġavailable": 2589,
      "Ġparticularly": 2590,
      "Ġpercent": 2591,
      "ander": 2592,
      "antry": 2593,
      "Ġhard": 2594,
      "ĠWil": 2595,
      "anned": 2596,
      "Ġsequ": 2597,
      "Ġtraining": 2598,
      "ĠRepublic": 2599,
      "Ġforced": 2600,
      "Ġmust": 2601,
      "Ġexist": 2602,
      "ply": 2603,
      "ĠMid": 2604,
      "ipp": 2605,
      "hib": 2606,
      "ĠMag": 2607,
      "ĠKingdom": 2608,
      "ĠCharles": 2609,
      "ĠNavy": 2610,
      "ography": 2611,
      "asy": 2612,
      "Ġpark": 2613,
      "ĠÂ°": 2614,
      "rian": 2615,
      "bor": 2616,
      "ateg": 2617,
      "Ġrespons": 2618,
      "Ġended": 2619,
      "Ġquar": 2620,
      "rac": 2621,
      "ĠMcC": 2622,
      "ĠOff": 2623,
      "Ġturned": 2624,
      "Ġwall": 2625,
      "ĠThomas": 2626,
      "Ġexc": 2627,
      "Ġsocial": 2628,
      "ĠInternational": 2629,
      "uture": 2630,
      "ĠBut": 2631,
      "Ġstudio": 2632,
      "ĠPal": 2633,
      "ems": 2634,
      "iforn": 2635,
      "ĠRes": 2636,
      "rag": 2637,
      "ĠDep": 2638,
      "ios": 2639,
      "Ġchange": 2640,
      "ĠWhite": 2641,
      "Ġlangu": 2642,
      "ĠVirgin": 2643,
      "Ġpraised": 2644,
      "Ġpassed": 2645,
      "Ġsuper": 2646,
      "Ġpriv": 2647,
      "Ġbill": 2648,
      "atural": 2649,
      "Ġpiec": 2650,
      "Ġincreased": 2651,
      "Ġobject": 2652,
      "ĠBrown": 2653,
      "rup": 2654,
      "Ġeduc": 2655,
      "Ġhurricane": 2656,
      "Ġregard": 2657,
      "Ġnorthern": 2658,
      "heast": 2659,
      "Ġ2002": 2660,
      "Ġkeep": 2661,
      "Ġphys": 2662,
      "Ġcentral": 2663,
      "ights": 2664,
      "ĠChurch": 2665,
      "itor": 2666,
      "Ġnovel": 2667,
      "Ġrelig": 2668,
      "ĠCanada": 2669,
      "sel": 2670,
      "Ġspeed": 2671,
      "Ġappearance": 2672,
      "ĠCaliforn": 2673,
      "Ġunits": 2674,
      "Ġpast": 2675,
      "rem": 2676,
      "ership": 2677,
      "ĠRock": 2678,
      "ĠSl": 2679,
      "key": 2680,
      "Ġstop": 2681,
      "Ġchurch": 2682,
      "ĠSen": 2683,
      "ended": 2684,
      "Ġcou": 2685,
      "Ġimmedi": 2686,
      "ĠBay": 2687,
      "uter": 2688,
      "Ġsym": 2689,
      "ston": 2690,
      "ĠMo": 2691,
      "ĠSmith": 2692,
      "ocr": 2693,
      "Ġdisp": 2694,
      "Ġmeas": 2695,
      "Ġordered": 2696,
      "aughter": 2697,
      "ĠMer": 2698,
      "Ġtreat": 2699,
      "ique": 2700,
      "ĠSam": 2701,
      "Ġtaking": 2702,
      "ference": 2703,
      "ĠRichard": 2704,
      "rying": 2705,
      "ittee": 2706,
      "Ġindepend": 2707,
      "Ġlove": 2708,
      "ĠAlex": 2709,
      "Ġsigned": 2710,
      "Ġmove": 2711,
      "ilities": 2712,
      "ĠCalifornia": 2713,
      "Ġachie": 2714,
      "etwork": 2715,
      "Ġbetter": 2716,
      "Ġpers": 2717,
      "ump": 2718,
      "ĠUnion": 2719,
      "itz": 2720,
      "aker": 2721,
      "ĠGod": 2722,
      "Ġap": 2723,
      "ĠGovern": 2724,
      "ecess": 2725,
      "arily": 2726,
      "Ġinn": 2727,
      "Ġwinds": 2728,
      "ĠIsland": 2729,
      "Ġcommerc": 2730,
      "Ġenough": 2731,
      "Ġwat": 2732,
      "Ġpositive": 2733,
      "ears": 2734,
      "nel": 2735,
      "ume": 2736,
      "ĠCourt": 2737,
      "Ġaccording": 2738,
      "Ġhous": 2739,
      "Ġspent": 2740,
      "elled": 2741,
      "Ġgoing": 2742,
      "Ġpot": 2743,
      "Ġabove": 2744,
      "ĠBra": 2745,
      "Ġslow": 2746,
      "anks": 2747,
      "Ġoutside": 2748,
      "Ġfilms": 2749,
      "apt": 2750,
      "ĠTom": 2751,
      "ĠVict": 2752,
      "ĠUp": 2753,
      "ĠCong": 2754,
      "Ġfeel": 2755,
      "Ġtold": 2756,
      "Ġfootball": 2757,
      "ma": 2758,
      "ĠAward": 2759,
      "berg": 2760,
      "quare": 2761,
      "Ġclear": 2762,
      "Ġpreviously": 2763,
      "uation": 2764,
      "Ġquest": 2765,
      "Ġstates": 2766,
      "Ġrecording": 2767,
      "Ġ1990": 2768,
      "Ġmean": 2769,
      "anding": 2770,
      "ĠAssoci": 2771,
      "Ġ60": 2772,
      "ĠAc": 2773,
      "Ġnine": 2774,
      "het": 2775,
      "Ġpur": 2776,
      "usion": 2777,
      "Ġsubject": 2778,
      "ĠArt": 2779,
      "Ġfailed": 2780,
      "atin": 2781,
      "ows": 2782,
      "Ġassist": 2783,
      "Ġcome": 2784,
      "ĠCompany": 2785,
      "Ġrequired": 2786,
      "reng": 2787,
      "osing": 2788,
      "Ġ45": 2789,
      "Ġelements": 2790,
      "Ġprob": 2791,
      "van": 2792,
      "Ġey": 2793,
      "ida": 2794,
      "ĠStud": 2795,
      "Ġcru": 2796,
      "alion": 2797,
      "ĠIndia": 2798,
      "Ġlower": 2799,
      "ĠGermany": 2800,
      "Ġreviews": 2801,
      "Ġinterview": 2802,
      "edy": 2803,
      "Ġphot": 2804,
      "Ġparts": 2805,
      "ĠMark": 2806,
      "ĠPeter": 2807,
      "ĠGold": 2808,
      "Ġitself": 2809,
      "ĠChristian": 2810,
      "Ġsil": 2811,
      "Ġnar": 2812,
      "Ġthink": 2813,
      "nes": 2814,
      "ranch": 2815,
      "ship": 2816,
      "Ġdirected": 2817,
      "Ġabs": 2818,
      "isl": 2819,
      "Ġesp": 2820,
      "Ġflow": 2821,
      "ibility": 2822,
      "Ġdespite": 2823,
      "Ġcred": 2824,
      "amer": 2825,
      "Ġcontract": 2826,
      "Ġ185": 2827,
      "oke": 2828,
      "ĠNY": 2829,
      "ĠThat": 2830,
      "Ġdebut": 2831,
      "ĠTimes": 2832,
      "Ġ?": 2833,
      "ĠÂ£": 2834,
      "ĠPat": 2835,
      "erved": 2836,
      "Ġaccess": 2837,
      "ready": 2838,
      "leb": 2839,
      "ĠCast": 2840,
      "Ġbeginning": 2841,
      "oid": 2842,
      "Ġbi": 2843,
      "Ġgroups": 2844,
      "ĠCollege": 2845,
      "Ġviol": 2846,
      "onna": 2847,
      "ĠHill": 2848,
      "Ġsection": 2849,
      "ĠUK": 2850,
      "ĠSov": 2851,
      "ability": 2852,
      "hester": 2853,
      "Ġwhose": 2854,
      "ĠBr": 2855,
      "asons": 2856,
      "Ġclaimed": 2857,
      "ĠWestern": 2858,
      "Ġinternational": 2859,
      "Ġasked": 2860,
      "Ġlines": 2861,
      "Ġtransfer": 2862,
      "Ġprevent": 2863,
      "ĠDem": 2864,
      "Ġstreng": 2865,
      "Ġscreen": 2866,
      "Ġgive": 2867,
      "airs": 2868,
      "Ġche": 2869,
      "ĠSoviet": 2870,
      "onse": 2871,
      "rief": 2872,
      "Ġunc": 2873,
      "Ġbeg": 2874,
      "Ġkey": 2875,
      "Ġadditional": 2876,
      "Ġfuture": 2877,
      "ĠFilm": 2878,
      "mar": 2879,
      "ĠGrand": 2880,
      "ĠMexic": 2881,
      "Ġleague": 2882,
      "Ġwhom": 2883,
      "ĠFrank": 2884,
      "Ġop": 2885,
      "ĠDo": 2886,
      "Ġgold": 2887,
      "ĠSpan": 2888,
      "Ġpoor": 2889,
      "ĠBen": 2890,
      "ĠAwards": 2891,
      "Ġfort": 2892,
      "lying": 2893,
      "Ġintroduced": 2894,
      "Ġevidence": 2895,
      "Ġdon": 2896,
      "Ġprem": 2897,
      "ites": 2898,
      "onst": 2899,
      "Ġsea": 2900,
      "Ġidea": 2901,
      "ex": 2902,
      "Ġquickly": 2903,
      "Ġcal": 2904,
      "atory": 2905,
      "Ġalready": 2906,
      "ĠSoc": 2907,
      "Ġ32": 2908,
      "Ġcenter": 2909,
      "Ġbridge": 2910,
      "Ġfrequ": 2911,
      "ĠForce": 2912,
      "usp": 2913,
      "ĠMost": 2914,
      "Ġelection": 2915,
      "Ġproduct": 2916,
      "Ġoccup": 2917,
      "eck": 2918,
      "Ġpil": 2919,
      "Ġexcept": 2920,
      "ĠCoun": 2921,
      "back": 2922,
      "Ġ1970": 2923,
      "unt": 2924,
      "Ġdeal": 2925,
      "irth": 2926,
      "eum": 2927,
      "ecially": 2928,
      "Ġpen": 2929,
      "Ġusually": 2930,
      "Ġmusical": 2931,
      "Ġ1980": 2932,
      "Ġemb": 2933,
      "Ġwestern": 2934,
      "Ġarrived": 2935,
      "aring": 2936,
      "ĠRob": 2937,
      "Ġblock": 2938,
      "eal": 2939,
      "Ġradio": 2940,
      "ĠBritain": 2941,
      "Ġcivil": 2942,
      "liam": 2943,
      "Ġcycl": 2944,
      "ergy": 2945,
      "ully": 2946,
      "ĠOver": 2947,
      "Ġfemale": 2948,
      "Ġsometimes": 2949,
      "ĠDay": 2950,
      "Ġstudy": 2951,
      "Ġfood": 2952,
      "Ġresponse": 2953,
      "Ġdecision": 2954,
      "Ġmoney": 2955,
      "ĠPac": 2956,
      "Ġmagazine": 2957,
      "Ġespecially": 2958,
      "ĠHot": 2959,
      "Ġissue": 2960,
      "ĠLater": 2961,
      "asc": 2962,
      "liament": 2963,
      "ĠVictor": 2964,
      "ĠIm": 2965,
      "Ġlab": 2966,
      "Ġsurface": 2967,
      "Ġliter": 2968,
      "gen": 2969,
      "rack": 2970,
      "Ġ-": 2971,
      "Ġflood": 2972,
      "Ġmight": 2973,
      "aint": 2974,
      "ĠChic": 2975,
      "Ġenv": 2976,
      "ĠTra": 2977,
      "Ġguitar": 2978,
      "Ġcarried": 2979,
      "ĠBur": 2980,
      "Ġshows": 2981,
      "Ġcommunity": 2982,
      "ena": 2983,
      "Ġconstruct": 2984,
      "iter": 2985,
      "Ġestimated": 2986,
      "Ġarran": 2987,
      "Ġremain": 2988,
      "aries": 2989,
      "ĠMill": 2990,
      "Ġ1999": 2991,
      "Ġremaining": 2992,
      "Ġeastern": 2993,
      "Ġminor": 2994,
      "ha": 2995,
      "Ġdefeated": 2996,
      "Ġdeterm": 2997,
      "ĠRh": 2998,
      "inent": 2999,
      "ession": 3000,
      "ĠVirginia": 3001,
      "ĠEarly": 3002,
      "Ġapprox": 3003,
      "igan": 3004,
      "Ġlarger": 3005,
      "raw": 3006,
      "ulf": 3007,
      "Ġbecoming": 3008,
      "Ġrap": 3009,
      "Ġwood": 3010,
      "Ġcomplete": 3011,
      "ĠMount": 3012,
      "Ġ36": 3013,
      "rab": 3014,
      "ror": 3015,
      "Ġpolice": 3016,
      "Ġsuggested": 3017,
      "porary": 3018,
      "Ġmedia": 3019,
      "Ġpressure": 3020,
      "Ġentered": 3021,
      "Ġshoot": 3022,
      "Ġ80": 3023,
      "Ġteams": 3024,
      "rics": 3025,
      "ĠLos": 3026,
      "ĠJust": 3027,
      "Ġcommercial": 3028,
      "Ġanal": 3029,
      "ĠInf": 3030,
      "Ġdoc": 3031,
      "Ġlatter": 3032,
      "ands": 3033,
      "NA": 3034,
      "Ġmarket": 3035,
      "erve": 3036,
      "Ġlo": 3037,
      "Ġconsider": 3038,
      "Ġstudents": 3039,
      "ises": 3040,
      "Ġsurround": 3041,
      "Ġinvestig": 3042,
      "Ġbrief": 3043,
      "Ġconcern": 3044,
      "Ġpersonal": 3045,
      "ĠSecond": 3046,
      "inct": 3047,
      "Ġbur": 3048,
      "ĠIf": 3049,
      "ĠTex": 3050,
      "Ġcertain": 3051,
      "Ġprison": 3052,
      "Ġacqu": 3053,
      "Ġdiscuss": 3054,
      "ĠFle": 3055,
      "ĠJackson": 3056,
      "Ġeffects": 3057,
      "Ġcomplet": 3058,
      "Ġhop": 3059,
      "Ġappointed": 3060,
      "alled": 3061,
      "Ġder": 3062,
      "Ġsummer": 3063,
      "Ġepisodes": 3064,
      "ĠCont": 3065,
      "Ġprior": 3066,
      "ederal": 3067,
      "incip": 3068,
      "ĠFlor": 3069,
      "Ġsat": 3070,
      "Ġtar": 3071,
      "change": 3072,
      "Ġemer": 3073,
      "Ġstaff": 3074,
      "enth": 3075,
      "lymp": 3076,
      "Ġsize": 3077,
      "ĠLouis": 3078,
      "ores": 3079,
      "Ġchanges": 3080,
      "ulated": 3081,
      "Ġcommission": 3082,
      "sy": 3083,
      "omm": 3084,
      "tt": 3085,
      "imate": 3086,
      "Ġwinning": 3087,
      "Ġlimited": 3088,
      "Ġscenes": 3089,
      "ĠOlymp": 3090,
      "Ġriver": 3091,
      "Ġfleet": 3092,
      "Ġleaving": 3093,
      "Ġdestroyed": 3094,
      "iser": 3095,
      "Ġdeg": 3096,
      "Ġdraw": 3097,
      "Ġpay": 3098,
      "II": 3099,
      "ĠClub": 3100,
      "Ġden": 3101,
      "Ġrid": 3102,
      "lo": 3103,
      "que": 3104,
      "ĠSpanish": 3105,
      "Ġ75": 3106,
      "Ġself": 3107,
      "ga": 3108,
      "su": 3109,
      "Ġrights": 3110,
      "ournal": 3111,
      "Ġprovide": 3112,
      "Ġwriter": 3113,
      "ires": 3114,
      "rigade": 3115,
      "Ġpolic": 3116,
      "sen": 3117,
      "Ġtype": 3118,
      "idents": 3119,
      "Ġfail": 3120,
      "ari": 3121,
      "ension": 3122,
      "Ġdate": 3123,
      "Ġtrib": 3124,
      "Ġterrit": 3125,
      "oms": 3126,
      "ĠKh": 3127,
      "Ġgirl": 3128,
      "Ġproposed": 3129,
      "rd": 3130,
      "Ġinfluence": 3131,
      "ties": 3132,
      "ĠGreen": 3133,
      "ĠParty": 3134,
      "Ġoverall": 3135,
      "Ġtax": 3136,
      "Ġ184": 3137,
      "Ġkil": 3138,
      "Ġtransport": 3139,
      "Ġ1960": 3140,
      "Ġstructure": 3141,
      "ĠTer": 3142,
      "Ġcontro": 3143,
      "Ġequip": 3144,
      "ĠDu": 3145,
      "Ġ300": 3146,
      "Ġdivision": 3147,
      "Ġscript": 3148,
      "Ġbr": 3149,
      "iral": 3150,
      "inese": 3151,
      "ÃŃ": 3152,
      "ĠAssociation": 3153,
      "Ġagreed": 3154,
      "Ġanti": 3155,
      "Ġintended": 3156,
      "ĠPri": 3157,
      "Ġjud": 3158,
      "Ġbow": 3159,
      "ĠEdward": 3160,
      "Ġrunning": 3161,
      "ift": 3162,
      "ending": 3163,
      "icles": 3164,
      "ĠChicago": 3165,
      "Ġdaughter": 3166,
      "Ġbig": 3167,
      "Ġbroadcast": 3168,
      "Ġpurch": 3169,
      "Ġnearly": 3170,
      "Ġsupported": 3171,
      "ĠMany": 3172,
      "atives": 3173,
      "AF": 3174,
      "ĠAdm": 3175,
      "Ġdeep": 3176,
      "Ġdi": 3177,
      "Ġresearch": 3178,
      "Ġwide": 3179,
      "imum": 3180,
      "Ġestablish": 3181,
      "ĠRo": 3182,
      "Ġhelped": 3183,
      "Ġmarried": 3184,
      "Ġ1998": 3185,
      "Ġmovement": 3186,
      "ĠChinese": 3187,
      "Ġawarded": 3188,
      "Ġmultip": 3189,
      "ĠSong": 3190,
      "ĠIr": 3191,
      "ĠCouncil": 3192,
      "ili": 3193,
      "ĠOper": 3194,
      "iles": 3195,
      "atively": 3196,
      "acing": 3197,
      "irm": 3198,
      "Ġcreate": 3199,
      "Ġfavor": 3200,
      "Ġintens": 3201,
      "Ġdiss": 3202,
      "Ġbird": 3203,
      "ĠSal": 3204,
      "ĠEnter": 3205,
      "Ġdark": 3206,
      "Ġsusp": 3207,
      "pris": 3208,
      "omer": 3209,
      "ny": 3210,
      "teen": 3211,
      "Ġstars": 3212,
      "Ã¶": 3213,
      "che": 3214,
      "Ġlonger": 3215,
      "Ġlanguage": 3216,
      "Ġhigher": 3217,
      "Ġcat": 3218,
      "ĠEv": 3219,
      "Ġplanned": 3220,
      "mon": 3221,
      "Ġcompared": 3222,
      "Ġcaptured": 3223,
      "Ġincreasing": 3224,
      "Ġfans": 3225,
      "Ġconclud": 3226,
      "Ġcourse": 3227,
      "uz": 3228,
      "Ġchanged": 3229,
      "ĠServ": 3230,
      "ĠSuper": 3231,
      "ĠEmp": 3232,
      "ĠJohnson": 3233,
      "Ġ33": 3234,
      "ounds": 3235,
      "Ġexperience": 3236,
      "Ġapproximately": 3237,
      "Ġrelated": 3238,
      "selves": 3239,
      "Ġdone": 3240,
      "Ġfeature": 3241,
      "Ġfifth": 3242,
      "Ġliving": 3243,
      "enty": 3244,
      "ĠKore": 3245,
      "Ġthemselves": 3246,
      "abit": 3247,
      "ĠHistory": 3248,
      "Ġproducer": 3249,
      "bers": 3250,
      "itt": 3251,
      "Ġ70": 3252,
      "tained": 3253,
      "arent": 3254,
      "Ġtemper": 3255,
      "Ġspace": 3256,
      "Ġtracks": 3257,
      "Ġmostly": 3258,
      "ss": 3259,
      "ĠPacific": 3260,
      "isions": 3261,
      "Ġwithd": 3262,
      "ĠInter": 3263,
      "ĠBack": 3264,
      "uth": 3265,
      "anced": 3266,
      "olic": 3267,
      "ĠBillboard": 3268,
      "ij": 3269,
      "Ġthus": 3270,
      "ĠApp": 3271,
      "ĠBet": 3272,
      "ĠNot": 3273,
      "can": 3274,
      "Ġwoman": 3275,
      "Ġdead": 3276,
      "umn": 3277,
      "ĠMont": 3278,
      "Ġoperations": 3279,
      "Ġimm": 3280,
      "Ġremains": 3281,
      "Ġsyn": 3282,
      "Ġbring": 3283,
      "Ġquarter": 3284,
      "thing": 3285,
      "Ġour": 3286,
      "Ġnatural": 3287,
      "Ġwhether": 3288,
      "imin": 3289,
      "vin": 3290,
      "Ġult": 3291,
      "Ã¼": 3292,
      "oint": 3293,
      "Ġconcept": 3294,
      "Ġweap": 3295,
      "Ġdram": 3296,
      "ĠFinal": 3297,
      "ĠScot": 3298,
      "anded": 3299,
      "Ġprobably": 3300,
      "Ġsoldiers": 3301,
      "Ġran": 3302,
      "Ġcopies": 3303,
      "rast": 3304,
      "ĠSun": 3305,
      "bour": 3306,
      "Ġbuildings": 3307,
      "Ġleader": 3308,
      "Ġvoice": 3309,
      "Ġ1997": 3310,
      "Ġface": 3311,
      "Ġboy": 3312,
      "Ġextended": 3313,
      "ĠSince": 3314,
      "Ġlyrics": 3315,
      "Ġforward": 3316,
      "Ġdepart": 3317,
      "ĠKn": 3318,
      "Ġcomplex": 3319,
      "Ġboard": 3320,
      "ĠAtlantic": 3321,
      "Ġreact": 3322,
      "iring": 3323,
      "Ġbattles": 3324,
      "vey": 3325,
      "Ġissued": 3326,
      "Ġheav": 3327,
      "Ġchall": 3328,
      "riage": 3329,
      "ging": 3330,
      "Ġreally": 3331,
      "Ġcountries": 3332,
      "ospital": 3333,
      "Ġ37": 3334,
      "rate": 3335,
      "Ġsuffered": 3336,
      "ĠLake": 3337,
      "ĠCongress": 3338,
      "Ġcm": 3339,
      "ĠLove": 3340,
      "ĠFort": 3341,
      "ĠFranc": 3342,
      "Ġgoals": 3343,
      "ĠFlorida": 3344,
      "urt": 3345,
      "ĠSever": 3346,
      "Ġincludes": 3347,
      "Ġimmediately": 3348,
      "Ġmeth": 3349,
      "ĠBoth": 3350,
      "Ġattend": 3351,
      "ĠBig": 3352,
      "hood": 3353,
      "Ġbreed": 3354,
      "Ġcapital": 3355,
      "Ġmanager": 3356,
      "Ġmixed": 3357,
      "Ġprivate": 3358,
      "iant": 3359,
      "ĠJim": 3360,
      "ĠJew": 3361,
      "Ġofficers": 3362,
      "Ġlikely": 3363,
      "ĠOld": 3364,
      "Ġcann": 3365,
      "Ġdistrib": 3366,
      "hold": 3367,
      "ĠAnt": 3368,
      "ien": 3369,
      "Ġmach": 3370,
      "ĠQueen": 3371,
      "de": 3372,
      "bury": 3373,
      "Ġremoved": 3374,
      "ĠTexas": 3375,
      "Ġplant": 3376,
      "Ġinitial": 3377,
      "Ġceleb": 3378,
      "ĠSea": 3379,
      "Ġincrease": 3380,
      "venue": 3381,
      "ĠTown": 3382,
      "Ġhealth": 3383,
      "Ġsubsequently": 3384,
      "ĠDist": 3385,
      "Ġleave": 3386,
      "Ġplans": 3387,
      "ria": 3388,
      "Ġalways": 3389,
      "Ġfocus": 3390,
      "Ġcoin": 3391,
      "ĠLaw": 3392,
      "Ġnetwork": 3393,
      "ections": 3394,
      "Ġservices": 3395,
      "Ġmount": 3396,
      "Ġvia": 3397,
      "Ġstatus": 3398,
      "Ġcompan": 3399,
      "ĠTrans": 3400,
      "ĠTor": 3401,
      "rial": 3402,
      "ĠPet": 3403,
      "ĠChina": 3404,
      "Ġvisit": 3405,
      "Ġlocation": 3406,
      "ĠMr": 3407,
      "order": 3408,
      "ams": 3409,
      "ĠAnother": 3410,
      "iation": 3411,
      "Ġflag": 3412,
      "Ġproblems": 3413,
      "ĠLord": 3414,
      "ĠCamp": 3415,
      "ĠHow": 3416,
      "ĠEarth": 3417,
      "Ġoffered": 3418,
      "Ġinstr": 3419,
      "well": 3420,
      "ously": 3421,
      "aily": 3422,
      "Ġmodel": 3423,
      "Ġterms": 3424,
      "Ġnorm": 3425,
      "etic": 3426,
      "Ġmur": 3427,
      "ĠConst": 3428,
      "Ġcolon": 3429,
      "Ġapproach": 3430,
      "Ġsomething": 3431,
      "Ġvillage": 3432,
      "Ġadminist": 3433,
      "Ġtons": 3434,
      "Ġfell": 3435,
      "ounted": 3436,
      "ĠWood": 3437,
      "wer": 3438,
      "ĠBoy": 3439,
      "ctor": 3440,
      "ĠOl": 3441,
      "Ġtor": 3442,
      "ironment": 3443,
      "Ġsch": 3444,
      "Ġmajority": 3445,
      "ĠTur": 3446,
      "Ġprofessional": 3447,
      "orning": 3448,
      "Ġcounter": 3449,
      "Ġ183": 3450,
      "ĠCanadian": 3451,
      "ĠIts": 3452,
      "adium": 3453,
      "ĠRail": 3454,
      "Ã³": 3455,
      "Ġgot": 3456,
      "ibr": 3457,
      "ĠAfrica": 3458,
      "Ġcause": 3459,
      "ĠMur": 3460,
      "Ġconsist": 3461,
      "burg": 3462,
      "aches": 3463,
      "uries": 3464,
      "Ġinters": 3465,
      "Ġdamaged": 3466,
      "Ġmeeting": 3467,
      "ĠGre": 3468,
      "Ġjob": 3469,
      "Ġappears": 3470,
      "Ġadop": 3471,
      "Ġminute": 3472,
      "Ġranked": 3473,
      "olk": 3474,
      "Ġlay": 3475,
      "ĠCenter": 3476,
      "uf": 3477,
      "Ġindividual": 3478,
      "oes": 3479,
      "Ġcomposed": 3480,
      "cean": 3481,
      "Ġrevealed": 3482,
      "ĠSquadron": 3483,
      "ĠHighway": 3484,
      "ify": 3485,
      "Ġang": 3486,
      "ste": 3487,
      "Ġflight": 3488,
      "Ġattacks": 3489,
      "ĠRussian": 3490,
      "itect": 3491,
      "Ġ90": 3492,
      "Ġplot": 3493,
      "Ġdiscovered": 3494,
      "Ġraised": 3495,
      "lor": 3496,
      "reak": 3497,
      "umed": 3498,
      "ĠRad": 3499,
      "ĠMel": 3500,
      "Ġfinanc": 3501,
      "Ġrespectively": 3502,
      "Ġmakes": 3503,
      "pan": 3504,
      "ĠKent": 3505,
      "ĠCarol": 3506,
      "ĠMartin": 3507,
      "ĠCentral": 3508,
      "ĠSir": 3509,
      "Ġnumerous": 3510,
      "ĠIII": 3511,
      "Ġ1995": 3512,
      "Ġassociated": 3513,
      "Ġaltern": 3514,
      "gar": 3515,
      "Ġtakes": 3516,
      "ĠAngeles": 3517,
      "Ġdomin": 3518,
      "Ġneeded": 3519,
      "Ġinspired": 3520,
      "ĠBow": 3521,
      "Ġanc": 3522,
      "Ġlived": 3523,
      "Ġ34": 3524,
      "oe": 3525,
      "ault": 3526,
      "Ġgrand": 3527,
      "Ġlaunched": 3528,
      "Ġyet": 3529,
      "ription": 3530,
      "Ġcand": 3531,
      "Ġnature": 3532,
      "Ġpow": 3533,
      "Ġamb": 3534,
      "Ġdig": 3535,
      "Ġcoach": 3536,
      "Ġoccurred": 3537,
      "Ġcontains": 3538,
      "ĠDV": 3539,
      "Ġveh": 3540,
      "estival": 3541,
      "Ġbene": 3542,
      "Ġshown": 3543,
      "Ġattempted": 3544,
      "uals": 3545,
      "Ġattacked": 3546,
      "ĠDes": 3547,
      "uments": 3548,
      "Ġmoving": 3549,
      "Ġconditions": 3550,
      "Ġupper": 3551,
      "Ġhour": 3552,
      "ĠTV": 3553,
      "ka": 3554,
      "iest": 3555,
      "down": 3556,
      "imb": 3557,
      "ken": 3558,
      "Ġsales": 3559,
      "Ġgra": 3560,
      "ective": 3561,
      "Ġ38": 3562,
      "ĠGroup": 3563,
      "ĠMiss": 3564,
      "joy": 3565,
      "ĠYear": 3566,
      "Ġcollect": 3567,
      "Ġ2016": 3568,
      "ĠDel": 3569,
      "aught": 3570,
      "ĠTour": 3571,
      "Ġ1996": 3572,
      "orce": 3573,
      "Ġissues": 3574,
      "Ġbirth": 3575,
      "Ġ1950": 3576,
      "ĠRev": 3577,
      "Ġwhole": 3578,
      "Ġsal": 3579,
      "izing": 3580,
      "Ġi": 3581,
      "Ġexam": 3582,
      "Ġcer": 3583,
      "Ġinformation": 3584,
      "Ġyards": 3585,
      "Ġfarm": 3586,
      "Ġslight": 3587,
      "ĠEmpire": 3588,
      "ĠOut": 3589,
      "Ġbox": 3590,
      "urity": 3591,
      "Ġmom": 3592,
      "win": 3593,
      "vert": 3594,
      "Ġreferred": 3595,
      "uing": 3596,
      "Ġcritical": 3597,
      "oly": 3598,
      "Ġincor": 3599,
      "reme": 3600,
      "ĠUnder": 3601,
      "ĠPenn": 3602,
      "ĠGar": 3603,
      "Ġnumbers": 3604,
      "Ġfinally": 3605,
      "Ġsmaller": 3606,
      "Ġelected": 3607,
      "Ġselected": 3608,
      "Ġdefeat": 3609,
      "Ġresulted": 3610,
      "Ġsen": 3611,
      "Ġscient": 3612,
      "Ġstay": 3613,
      "Ġbad": 3614,
      "Ġgrant": 3615,
      "Ġqual": 3616,
      "Ġactive": 3617,
      "Ġprincip": 3618,
      "Ġsinger": 3619,
      "kin": 3620,
      "Ġstandard": 3621,
      "Ġsecret": 3622,
      "Ġpit": 3623,
      "itation": 3624,
      "ĠItalian": 3625,
      "uated": 3626,
      "Ġmission": 3627,
      "Ġindustry": 3628,
      "Ġ1994": 3629,
      "enant": 3630,
      "Ġlargely": 3631,
      "Ġens": 3632,
      "Ġoperation": 3633,
      "Ġsem": 3634,
      "andon": 3635,
      "ĠJose": 3636,
      "Ġprec": 3637,
      "Ġlink": 3638,
      "ortun": 3639,
      "onic": 3640,
      "oura": 3641,
      "Ġassigned": 3642,
      "use": 3643,
      "Ġsaf": 3644,
      "Ġlegisl": 3645,
      "Ġearned": 3646,
      "Ġthr": 3647,
      "Ġcommented": 3648,
      "itude": 3649,
      "Ġmale": 3650,
      "Ġexpected": 3651,
      "ãĥ": 3652,
      "ĠDVD": 3653,
      "ĠCorps": 3654,
      "iled": 3655,
      "ĠDis": 3656,
      "Ġroy": 3657,
      "Ġaudience": 3658,
      "Ġlisted": 3659,
      "Ġsuggest": 3660,
      "Ġgre": 3661,
      "oud": 3662,
      "ĠCrit": 3663,
      "ĠArm": 3664,
      "Ġcovered": 3665,
      "Ġpurp": 3666,
      "Ġunable": 3667,
      "irection": 3668,
      "Ġsched": 3669,
      "Ġheart": 3670,
      "Ġtraditional": 3671,
      "ĠCr": 3672,
      "Ġeducation": 3673,
      "gr": 3674,
      "Ġtrade": 3675,
      "Ġartist": 3676,
      "Ġnewsp": 3677,
      "ya": 3678,
      "Ġdouble": 3679,
      "Ġfriends": 3680,
      "Ġclosed": 3681,
      "ĠViet": 3682,
      "Ġunderst": 3683,
      "Ġrefused": 3684,
      "agon": 3685,
      "Ġaw": 3686,
      "Ġrecover": 3687,
      "Ġattention": 3688,
      "ounts": 3689,
      "Ġmethod": 3690,
      "Ġprimary": 3691,
      "ighter": 3692,
      "Ġsister": 3693,
      "ogue": 3694,
      "Ġkind": 3695,
      "Ġtalk": 3696,
      "ĠMichigan": 3697,
      "ĠPre": 3698,
      "tered": 3699,
      "Ġreason": 3700,
      "ffic": 3701,
      "Ġofficer": 3702,
      "Ġplat": 3703,
      "Ġbelow": 3704,
      "Ġcontem": 3705,
      "hips": 3706,
      "Ġ1940": 3707,
      "ĠWales": 3708,
      "Ġenjoy": 3709,
      "Ġability": 3710,
      "Ġdepression": 3711,
      "Ġmeant": 3712,
      "ĠMass": 3713,
      "Ġperformances": 3714,
      "Ġdeclared": 3715,
      "oo": 3716,
      "Ġwalk": 3717,
      "ĠNort": 3718,
      "Ġ49": 3719,
      "Ġblood": 3720,
      "isher": 3721,
      "ĠMore": 3722,
      "Ġgiving": 3723,
      "ĠCath": 3724,
      "Ġletter": 3725,
      "Ġcompl": 3726,
      "Ġword": 3727,
      "undred": 3728,
      "ples": 3729,
      "Ġ180": 3730,
      "Ġfighting": 3731,
      "Ġmiddle": 3732,
      "ĠCle": 3733,
      "Ġcommander": 3734,
      "Ġreligious": 3735,
      "Ġbooks": 3736,
      "Ġtheat": 3737,
      "Ġmax": 3738,
      "Ġhot": 3739,
      "Ġsett": 3740,
      "Ġrate": 3741,
      "ĠOx": 3742,
      "ĠArch": 3743,
      "ĠStep": 3744,
      "ĠLong": 3745,
      "Ġrecords": 3746,
      "ils": 3747,
      "Ġmatches": 3748,
      "Ġconstit": 3749,
      "ĠAcad": 3750,
      "Ġnames": 3751,
      "ona": 3752,
      "aped": 3753,
      "ĠBec": 3754,
      "ĠTest": 3755,
      "ĠDemocr": 3756,
      "Ġproduce": 3757,
      "Ġquestion": 3758,
      "ĠFer": 3759,
      "ĠCare": 3760,
      "antasy": 3761,
      "Ġcompetition": 3762,
      "utch": 3763,
      "Ġcentre": 3764,
      "Ġserious": 3765,
      "Ġunit": 3766,
      "ux": 3767,
      "ĠTeam": 3768,
      "odies": 3769,
      "Ġdisapp": 3770,
      "Ġtouch": 3771,
      "Ġvocals": 3772,
      "ims": 3773,
      "ĠMinister": 3774,
      "irt": 3775,
      "ĠSeveral": 3776,
      "iences": 3777,
      "Ġmention": 3778,
      "ĠZeal": 3779,
      "osh": 3780,
      "ounded": 3781,
      "Ġ1992": 3782,
      "Ġri": 3783,
      "ĠMajor": 3784,
      "ector": 3785,
      "ĠCons": 3786,
      "Ġ41": 3787,
      "Ġaccount": 3788,
      "Ġdocument": 3789,
      "Ġabandon": 3790,
      "ĠWal": 3791,
      "road": 3792,
      "icted": 3793,
      "Ġrapid": 3794,
      "Ġenergy": 3795,
      "Ġnecess": 3796,
      "ares": 3797,
      "Ġmor": 3798,
      "quar": 3799,
      "Ġkilomet": 3800,
      "ĠKenn": 3801,
      "ervation": 3802,
      "echan": 3803,
      "ĠFore": 3804,
      "Ġdut": 3805,
      "Ġconstructed": 3806,
      "ening": 3807,
      "Ġtheme": 3808,
      "Ġris": 3809,
      "rug": 3810,
      "oses": 3811,
      "rier": 3812,
      "ĠFox": 3813,
      "ĠSum": 3814,
      "ette": 3815,
      "ĠTime": 3816,
      "Ġroyal": 3817,
      "Ġpick": 3818,
      "ishop": 3819,
      "Ġstra": 3820,
      "Ġnearby": 3821,
      "Ġhighly": 3822,
      "Ġseparate": 3823,
      "ĠZealand": 3824,
      "yr": 3825,
      "ĠEr": 3826,
      "Ġcontinue": 3827,
      "vention": 3828,
      "Ġprep": 3829,
      "ĠSo": 3830,
      "Ġchief": 3831,
      "Ġdrum": 3832,
      "ails": 3833,
      "Ġeffort": 3834,
      "Ġcas": 3835,
      "Ġpresented": 3836,
      "edic": 3837,
      "ĠHaw": 3838,
      "Ġtur": 3839,
      "ĠSar": 3840,
      "Ġcombat": 3841,
      "ĠMexico": 3842,
      "oper": 3843,
      "Ġpositions": 3844,
      "ĠAfrican": 3845,
      "Ġreduced": 3846,
      "Ġannual": 3847,
      "ĠBu": 3848,
      "ether": 3849,
      "Ġ400": 3850,
      "ibly": 3851,
      "Ġcontrovers": 3852,
      "ĠChris": 3853,
      "ĠMatt": 3854,
      "Ġdirectly": 3855,
      "ieut": 3856,
      "ĠMa": 3857,
      "ĠFour": 3858,
      "Ġ1930": 3859,
      "Ġlevels": 3860,
      "cel": 3861,
      "Ġmeans": 3862,
      "Ġcle": 3863,
      "Ġneigh": 3864,
      "ĠWall": 3865,
      "Ġnotes": 3866,
      "Ġattended": 3867,
      "Ġsevent": 3868,
      "Ġpractice": 3869,
      "Ġtried": 3870,
      "shire": 3871,
      "Ġcompos": 3872,
      "Ġforest": 3873,
      "uit": 3874,
      "emorial": 3875,
      "Ġ55": 3876,
      "Ġfast": 3877,
      "Ġhar": 3878,
      "Ġnuc": 3879,
      "Ġedition": 3880,
      "Ġtrain": 3881,
      "ĠLit": 3882,
      "ĠBrad": 3883,
      "ĠDar": 3884,
      "acher": 3885,
      "ado": 3886,
      "ĠChart": 3887,
      "ĠTre": 3888,
      "ĠBob": 3889,
      "arents": 3890,
      "Ġtwenty": 3891,
      "vement": 3892,
      "Ġmetal": 3893,
      "Ġ1993": 3894,
      "ĠMadonna": 3895,
      "Ġaccepted": 3896,
      "osen": 3897,
      "Ġwatch": 3898,
      "Ġstating": 3899,
      "Ġ1991": 3900,
      "Ġmovie": 3901,
      "Ġarchitect": 3902,
      "Ġtext": 3903,
      "rical": 3904,
      "ĠHel": 3905,
      "Ġrepe": 3906,
      "Ġcandid": 3907,
      "isation": 3908,
      "track": 3909,
      "Ġconcert": 3910,
      "ĠScotland": 3911,
      "Ġadvance": 3912,
      "stitute": 3913,
      "Ġ179": 3914,
      "Ġpair": 3915,
      "ĠJones": 3916,
      "Ġportray": 3917,
      "Ġdirection": 3918,
      "Ġfr": 3919,
      "irmed": 3920,
      "house": 3921,
      "ersey": 3922,
      "Äĩ": 3923,
      "Ġseem": 3924,
      "Ġdism": 3925,
      "ĠTheir": 3926,
      "Ġschools": 3927,
      "Ġlegal": 3928,
      "ĠAnn": 3929,
      "ani": 3930,
      "Ġreject": 3931,
      "eway": 3932,
      "lict": 3933,
      "inem": 3934,
      "ih": 3935,
      "wide": 3936,
      "Ġasp": 3937,
      "ĠManc": 3938,
      "icip": 3939,
      "fall": 3940,
      "Ġge": 3941,
      "Ġhorse": 3942,
      "ĠCross": 3943,
      "Ġthick": 3944,
      "Ġmarriage": 3945,
      "illery": 3946,
      "aging": 3947,
      "Ġrecomm": 3948,
      "Ġ+": 3949,
      "ĠGreek": 3950,
      "ĠDepartment": 3951,
      "light": 3952,
      "Ġefforts": 3953,
      "Ġmanaged": 3954,
      "Ġcollege": 3955,
      "ĠDou": 3956,
      "awn": 3957,
      "Ġ39": 3958,
      "Ġpurs": 3959,
      "like": 3960,
      "icient": 3961,
      "ĠGo": 3962,
      "Ġwing": 3963,
      "utions": 3964,
      "Ġresulting": 3965,
      "hy": 3966,
      "Ġending": 3967,
      "irit": 3968,
      "ieutenant": 3969,
      "ĠThree": 3970,
      "band": 3971,
      "Ġshowed": 3972,
      "Ġdropped": 3973,
      "Ġresponsible": 3974,
      "ĠMic": 3975,
      "ĠPost": 3976,
      "MS": 3977,
      "ĠInfantry": 3978,
      "Ġ182": 3979,
      "Ġnation": 3980,
      "Ġdisplay": 3981,
      "Ġinside": 3982,
      "illed": 3983,
      "ĠFoot": 3984,
      "ita": 3985,
      "Ġcases": 3986,
      "Ġkept": 3987,
      "Ġcust": 3988,
      "Ġenvironment": 3989,
      "ĠLad": 3990,
      "ĠBost": 3991,
      "Ġ48": 3992,
      "Ġculture": 3993,
      "Ġrare": 3994,
      "Ġmeaning": 3995,
      "Ġrat": 3996,
      "ĠLeg": 3997,
      "Ġcyclone": 3998,
      "olf": 3999,
      "Ġdom": 4000,
      "Ġincorpor": 4001,
      "Ġbegins": 4002,
      "Ġ42": 4003,
      "Ġvariety": 4004,
      "ceeded": 4005,
      "Ġmorning": 4006,
      "Ġsubst": 4007,
      "pe": 4008,
      "Ġcerem": 4009,
      "pass": 4010,
      "Ġhouses": 4011,
      "ĠStone": 4012,
      "Ġforms": 4013,
      "Ġchampionship": 4014,
      "ĠService": 4015,
      "Ġwords": 4016,
      "rane": 4017,
      "Ġarrest": 4018,
      "Ġschol": 4019,
      "ĠCreek": 4020,
      "Ġyard": 4021,
      "peror": 4022,
      "ĠWilliams": 4023,
      "ĠHung": 4024,
      "Ġoil": 4025,
      "ĠRecords": 4026,
      "ĠSecret": 4027,
      "Ġmarked": 4028,
      "Ġinches": 4029,
      "cend": 4030,
      "Ġcontinues": 4031,
      "Ġspl": 4032,
      "ini": 4033,
      "Ġscience": 4034,
      "ĠBC": 4035,
      "Ġperm": 4036,
      "Ġ181": 4037,
      "Ġsymb": 4038,
      "gl": 4039,
      "ĠNews": 4040,
      "gypt": 4041,
      "ecting": 4042,
      "Åį": 4043,
      "ols": 4044,
      "Ġbank": 4045,
      "ĠHal": 4046,
      "ĠStan": 4047,
      "ĠParliament": 4048,
      "Ġuses": 4049,
      "Ġeconomic": 4050,
      "ĠSur": 4051,
      "writ": 4052,
      "cle": 4053,
      "Ġsource": 4054,
      "ĠGames": 4055,
      "thel": 4056,
      "bed": 4057,
      "ĠFin": 4058,
      "ras": 4059,
      "ĠTro": 4060,
      "Ġquality": 4061,
      "Ġdefend": 4062,
      "ĠPan": 4063,
      "ĠTri": 4064,
      "ulations": 4065,
      "Ġlear": 4066,
      "Ġhundred": 4067,
      "Ġsettle": 4068,
      "Ġimpact": 4069,
      "Ġstarting": 4070,
      "Ġconducted": 4071,
      "ĠBook": 4072,
      "thur": 4073,
      "Ġspecific": 4074,
      "Ġstrugg": 4075,
      "Ġallowing": 4076,
      "wh": 4077,
      "ĠEgypt": 4078,
      "ĠSociety": 4079,
      "Ġbeat": 4080,
      "Ġ1942": 4081,
      "Ġpresence": 4082,
      "ĠSol": 4083,
      "Ġamount": 4084,
      "Ġdu": 4085,
      "ĠJer": 4086,
      "Ġsides": 4087,
      "ĠOh": 4088,
      "Ġviewers": 4089,
      "Ġcaptain": 4090,
      "sych": 4091,
      "een": 4092,
      "Ġdance": 4093,
      "Ġmetres": 4094,
      "ingu": 4095,
      "Ġchap": 4096,
      "Ġunivers": 4097,
      "Ġsuppl": 4098,
      "ĠLu": 4099,
      "Ġexhib": 4100,
      "Ġrule": 4101,
      "Ġple": 4102,
      "ĠPrince": 4103,
      "ĠSouthern": 4104,
      "ĠVer": 4105,
      "ĠStephen": 4106,
      "Ġdistinct": 4107,
      "Ġmultiple": 4108,
      "ĠGeorg": 4109,
      "ĠSat": 4110,
      "ding": 4111,
      "Ġtransferred": 4112,
      "Ġpotential": 4113,
      "ĠCommittee": 4114,
      "Ġforeign": 4115,
      "Ġ47": 4116,
      "ĠLatin": 4117,
      "Ġcontrast": 4118,
      "ĠOxford": 4119,
      "Ġ65": 4120,
      "Ġpeaked": 4121,
      "inet": 4122,
      "itiz": 4123,
      "Ġenemy": 4124,
      "Ġyour": 4125,
      "arian": 4126,
      "ĠSil": 4127,
      "Ġtraffic": 4128,
      "Ġbecomes": 4129,
      "Ġmess": 4130,
      "ĠSpec": 4131,
      "ping": 4132,
      "Ġowned": 4133,
      "Ġthings": 4134,
      "Ġfounded": 4135,
      "Ġgreater": 4136,
      "ĠJoseph": 4137,
      "ĠLike": 4138,
      "Ġvocal": 4139,
      "ĠAdmiral": 4140,
      "Ġopt": 4141,
      "Ġconcluded": 4142,
      "Ġportion": 4143,
      "very": 4144,
      "Ġcastle": 4145,
      "Ġscoring": 4146,
      "ĠCamb": 4147,
      "ider": 4148,
      "Ġrespond": 4149,
      "ym": 4150,
      "Ġstories": 4151,
      "Ġproperty": 4152,
      "iance": 4153,
      "Ġattempts": 4154,
      "Ġencoun": 4155,
      "ĠBoston": 4156,
      "rong": 4157,
      "anes": 4158,
      "Ġrelatively": 4159,
      "kn": 4160,
      "ĠTw": 4161,
      "ĠChief": 4162,
      "ĠManchester": 4163,
      "Ġprimarily": 4164,
      "Ġdemonst": 4165,
      "ĠHarrison": 4166,
      "ĠJeff": 4167,
      "Ġfederal": 4168,
      "Ġfinancial": 4169,
      "ograp": 4170,
      "ĠClass": 4171,
      "ressive": 4172,
      "ellig": 4173,
      "ĠForm": 4174,
      "ĠCaptain": 4175,
      "ĠBecause": 4176,
      "ĠBefore": 4177,
      "Ġactually": 4178,
      "Ġanimals": 4179,
      "ĠSwed": 4180,
      "Ġobserved": 4181,
      "ĠHurricane": 4182,
      "Ġtourn": 4183,
      "Ġlif": 4184,
      "ĠWin": 4185,
      "Ġcollection": 4186,
      "ĠTim": 4187,
      "Ġopportun": 4188,
      "fect": 4189,
      "ĠVietn": 4190,
      "ĠBat": 4191,
      "Ġtitled": 4192,
      "Ġ52": 4193,
      "ĠDen": 4194,
      "Ġfeaturing": 4195,
      "istics": 4196,
      "Ġwriters": 4197,
      "Ġ46": 4198,
      "Ġwrite": 4199,
      "Ġ1944": 4200,
      "ĠDef": 4201,
      "Ġjournal": 4202,
      "eds": 4203,
      "Ġwa": 4204,
      "ĠBridge": 4205,
      "ees": 4206,
      "ĠFred": 4207,
      "Ġstrength": 4208,
      "Ġwor": 4209,
      "umber": 4210,
      "Ġinch": 4211,
      "Ġmechan": 4212,
      "Ġweaken": 4213,
      "Ġsituation": 4214,
      "ĠOtt": 4215,
      "Ġspot": 4216,
      "Ġpaid": 4217,
      "Ġdistance": 4218,
      "Ġpremi": 4219,
      "Ġparents": 4220,
      "ĠCommission": 4221,
      "Ġindependent": 4222,
      "ĠBattalion": 4223,
      "Ġfigure": 4224,
      "Ġshare": 4225,
      "mas": 4226,
      "rel": 4227,
      "Ġmel": 4228,
      "Ġactor": 4229,
      "Ġ64": 4230,
      "Ġacting": 4231,
      "Ġcompanies": 4232,
      "Ġdivided": 4233,
      "ĠLittle": 4234,
      "ĠParis": 4235,
      "Ġmind": 4236,
      "Ġ43": 4237,
      "stein": 4238,
      "Ġonto": 4239,
      "ĠProdu": 4240,
      "astic": 4241,
      "ĠLuc": 4242,
      "Ġcollabor": 4243,
      "ĠLife": 4244,
      "ĠColumb": 4245,
      "ĠCarl": 4246,
      "Ġtarget": 4247,
      "anna": 4248,
      "Ġslightly": 4249,
      "Ġfunction": 4250,
      "Ġpiece": 4251,
      "ĠSeries": 4252,
      "Ġreform": 4253,
      "ĠMod": 4254,
      "Ġselling": 4255,
      "Ġ44": 4256,
      "perial": 4257,
      "ĠEntertain": 4258,
      "aud": 4259,
      "ricket": 4260,
      "Ġpowerful": 4261,
      "ĠGra": 4262,
      "Ġtorped": 4263,
      "Ġconcent": 4264,
      "chest": 4265,
      "Ġinnings": 4266,
      "Ġrating": 4267,
      "ĠMax": 4268,
      "thlet": 4269,
      "oration": 4270,
      "ĠBBC": 4271,
      "Ġplays": 4272,
      "istry": 4273,
      "Ġrough": 4274,
      "Ġlot": 4275,
      "Ġtoday": 4276,
      "lam": 4277,
      "Ġbroke": 4278,
      "uge": 4279,
      "Ġcho": 4280,
      "Ġera": 4281,
      "osaur": 4282,
      "ĠPop": 4283,
      "annel": 4284,
      "ĠCroat": 4285,
      "Ġactions": 4286,
      "Ġwaters": 4287,
      "Ġultimately": 4288,
      "ĠOs": 4289,
      "ĠHistor": 4290,
      "Ġtrial": 4291,
      "Ġsquare": 4292,
      "Ġmaximum": 4293,
      "rown": 4294,
      "ada": 4295,
      "Ġdise": 4296,
      "Ġtend": 4297,
      "itan": 4298,
      "Ġpilot": 4299,
      "load": 4300,
      "Ġbound": 4301,
      "Ġlog": 4302,
      "illa": 4303,
      "Ġinterp": 4304,
      "rupt": 4305,
      "Ġcompletely": 4306,
      "ĠAcademy": 4307,
      "Ġblue": 4308,
      "under": 4309,
      "Ġsought": 4310,
      "Ġ1920": 4311,
      "Ġgar": 4312,
      "oti": 4313,
      "Ġ1945": 4314,
      "mond": 4315,
      "Ġscale": 4316,
      "mark": 4317,
      "Ġsociety": 4318,
      "ĠLine": 4319,
      "Ġess": 4320,
      "Ġbehav": 4321,
      "Ġhus": 4322,
      "ĠMuseum": 4323,
      "ĠSaint": 4324,
      "Ġmainly": 4325,
      "ĠSk": 4326,
      "alle": 4327,
      "ota": 4328,
      "Ġdesignated": 4329,
      "Ġ1941": 4330,
      "za": 4331,
      "ĠHor": 4332,
      "omy": 4333,
      "Ġconver": 4334,
      "Ġofficials": 4335,
      "ĠVan": 4336,
      "Ġstruck": 4337,
      "Ġ150": 4338,
      "Ġtransl": 4339,
      "cers": 4340,
      "ylvan": 4341,
      "Ġactivity": 4342,
      "Ġpolicy": 4343,
      "Ġcombined": 4344,
      "Ġsay": 4345,
      "ĠWay": 4346,
      "Ġinfluenced": 4347,
      "Ġwear": 4348,
      "olved": 4349,
      "Ġcorn": 4350,
      "iano": 4351,
      "Ġsearch": 4352,
      "AS": 4353,
      "ĠEntertainment": 4354,
      "ĠArab": 4355,
      "Ġvess": 4356,
      "ĠItaly": 4357,
      "ented": 4358,
      "Ġthous": 4359,
      "Ġcalling": 4360,
      "racted": 4361,
      "Ġalongside": 4362,
      "Ġnortheast": 4363,
      "Ġseconds": 4364,
      "Ġbatter": 4365,
      "ala": 4366,
      "ĠBrigade": 4367,
      "Ġsout": 4368,
      "ĠWind": 4369,
      "orses": 4370,
      "while": 4371,
      "ĠAmericans": 4372,
      "Ġwinter": 4373,
      "ĠConf": 4374,
      "Ġsources": 4375,
      "ĠLee": 4376,
      "Ġseg": 4377,
      "Ġbackground": 4378,
      "phy": 4379,
      "ĠIre": 4380,
      "Ġwebs": 4381,
      "aine": 4382,
      "Ġice": 4383,
      "Ġnews": 4384,
      "udd": 4385,
      "Ġthir": 4386,
      "ĠTod": 4387,
      "Ġtheory": 4388,
      "rative": 4389,
      "Ġrecent": 4390,
      "ĠAlb": 4391,
      "Ġsuc": 4392,
      "TV": 4393,
      "Ġmem": 4394,
      "Ġcrow": 4395,
      "Ġgained": 4396,
      "Ġnominated": 4397,
      "Ġplatform": 4398,
      "HL": 4399,
      "onn": 4400,
      "Ġartists": 4401,
      "adel": 4402,
      "ĠRegiment": 4403,
      "Ġwidely": 4404,
      "Ġnaval": 4405,
      "quarters": 4406,
      "Ġsystems": 4407,
      "Ġpromoted": 4408,
      "Ġelectric": 4409,
      "Ġconfirmed": 4410,
      "ube": 4411,
      "ĠIreland": 4412,
      "pson": 4413,
      "Ġreaching": 4414,
      "Ġproved": 4415,
      "Ġresults": 4416,
      "ĠAvenue": 4417,
      "Ġpassing": 4418,
      "ibrary": 4419,
      "ĠFleet": 4420,
      "Ġalbums": 4421,
      "ĠGood": 4422,
      "ĠEll": 4423,
      "Ġexplained": 4424,
      "Ġsubsequent": 4425,
      "Ġgreatest": 4426,
      "Ġconflict": 4427,
      "ero": 4428,
      "Ġwick": 4429,
      "Ġcontent": 4430,
      "Ġinvasion": 4431,
      "Ġir": 4432,
      "Ġsn": 4433,
      "ĠAut": 4434,
      "ĠRay": 4435,
      "Ġ1989": 4436,
      "Ġcoming": 4437,
      "Ġcharge": 4438,
      "Ġhero": 4439,
      "Ġpeace": 4440,
      "Ġresist": 4441,
      "Ġsixth": 4442,
      "hew": 4443,
      "Ġnorthwest": 4444,
      "Ġweather": 4445,
      "oured": 4446,
      "Ġcounty": 4447,
      "Ġadj": 4448,
      "ĠOrig": 4449,
      "Ġshortly": 4450,
      "grad": 4451,
      "town": 4452,
      "Ġ1943": 4453,
      "aga": 4454,
      "ĠBus": 4455,
      "Ġversions": 4456,
      "ĠSub": 4457,
      "Ġpath": 4458,
      "aling": 4459,
      "Ġserve": 4460,
      "Ġcausing": 4461,
      "Ġsays": 4462,
      "Ġsust": 4463,
      "ĠLo": 4464,
      "Ġ51": 4465,
      "Ġexpressed": 4466,
      "iced": 4467,
      "Ġreception": 4468,
      "Ġseek": 4469,
      "ĠVictoria": 4470,
      "ĠSant": 4471,
      "Ġburn": 4472,
      "itness": 4473,
      "ĠCatholic": 4474,
      "Ġresidents": 4475,
      "Ġemot": 4476,
      "bon": 4477,
      "Ġborder": 4478,
      "ĠNorm": 4479,
      "ĠCharl": 4480,
      "ĠTropical": 4481,
      "ĠWork": 4482,
      "Ġchem": 4483,
      "Ġsoundtrack": 4484,
      "ansion": 4485,
      "ĠValley": 4486,
      "Ġcities": 4487,
      "ĠAdd": 4488,
      "ĠMat": 4489,
      "ips": 4490,
      "Ġgreen": 4491,
      "Ġseasons": 4492,
      "tation": 4493,
      "ĠNin": 4494,
      "ategory": 4495,
      "Ġappearances": 4496,
      "Ġsense": 4497,
      "ĠDi": 4498,
      "ĠLight": 4499,
      "Ġsexual": 4500,
      "Ġhospital": 4501,
      "Ġrequire": 4502,
      "AA": 4503,
      "infall": 4504,
      "ĠMiddle": 4505,
      "Ġpun": 4506,
      "Ġphysical": 4507,
      "Ġidentified": 4508,
      "Ġolder": 4509,
      "ighth": 4510,
      "Ġhands": 4511,
      "ĠLive": 4512,
      "arden": 4513,
      "Ġiron": 4514,
      "ĠRam": 4515,
      "ĠDun": 4516,
      "ĠThough": 4517,
      "Ġtrue": 4518,
      "Ġtells": 4519,
      "Ġoffer": 4520,
      "ĠLiber": 4521,
      "Ġdedic": 4522,
      "Ġkg": 4523,
      "ĠRy": 4524,
      "unction": 4525,
      "ĠCommun": 4526,
      "ysis": 4527,
      "Ġartillery": 4528,
      "ancy": 4529,
      "ĠShow": 4530,
      "Ġrepresented": 4531,
      "ĠTop": 4532,
      "Ġweapons": 4533,
      "ĠVol": 4534,
      "Ġextra": 4535,
      "Ġgas": 4536,
      "ĠFootball": 4537,
      "Ġahead": 4538,
      "ĠThrough": 4539,
      "eption": 4540,
      "Ġpal": 4541,
      "aded": 4542,
      "ĠMen": 4543,
      "ronic": 4544,
      "ylvania": 4545,
      "Ġeas": 4546,
      "ĠKar": 4547,
      "ĠJul": 4548,
      "Ġheavily": 4549,
      "ĠBey": 4550,
      "ĠUpon": 4551,
      "ĠYoung": 4552,
      "Ġsupp": 4553,
      "ĠDirect": 4554,
      "abeth": 4555,
      "itable": 4556,
      "ĠTay": 4557,
      "Ġavoid": 4558,
      "ĠDutch": 4559,
      "lers": 4560,
      "Ġdefense": 4561,
      "Ġchallen": 4562,
      "Ġstudent": 4563,
      "Ġagg": 4564,
      "ĠWeek": 4565,
      "Ġalone": 4566,
      "Ġimage": 4567,
      "Ġspread": 4568,
      "Ġapparent": 4569,
      "Ġstudies": 4570,
      "Ġofficially": 4571,
      "ĠEliz": 4572,
      "Ġhusband": 4573,
      "known": 4574,
      "Ġdistrict": 4575,
      "ĠIll": 4576,
      "Ġexecutive": 4577,
      "Ġbit": 4578,
      "Ġinstit": 4579,
      "ĠAlbert": 4580,
      "ĠFre": 4581,
      "bur": 4582,
      "essions": 4583,
      "Ġdebuted": 4584,
      "Ġwild": 4585,
      "Ġprominent": 4586,
      "Ġcapture": 4587,
      "Ġpack": 4588,
      "Ġconsisted": 4589,
      "Ġinstrument": 4590,
      "Ġsend": 4591,
      "Ġinjury": 4592,
      "Ġfired": 4593,
      "Ġorganization": 4594,
      "Ġequipment": 4595,
      "ĠRog": 4596,
      "ports": 4597,
      "Ġresc": 4598,
      "Ġstone": 4599,
      "pool": 4600,
      "Ġpattern": 4601,
      "ĠFar": 4602,
      "Ġprepar": 4603,
      "ĠBre": 4604,
      "Ġargued": 4605,
      "ĠDam": 4606,
      "Ġaired": 4607,
      "Ġfigures": 4608,
      "ĠBond": 4609,
      "Ġsurpris": 4610,
      "Ġexped": 4611,
      "urban": 4612,
      "Ġgrowth": 4613,
      "Ġeth": 4614,
      "Ġpict": 4615,
      "acity": 4616,
      "ĠCivil": 4617,
      "ĠHomer": 4618,
      "Ġbud": 4619,
      "Ġhun": 4620,
      "Ġcouple": 4621,
      "Ġgraph": 4622,
      "Ġdoing": 4623,
      "Ġreturning": 4624,
      "Ġmagn": 4625,
      "Ġring": 4626,
      "Ġcontemporary": 4627,
      "ushed": 4628,
      "Ġpoet": 4629,
      "Ġcert": 4630,
      "lines": 4631,
      "rog": 4632,
      "Ġpan": 4633,
      "Ġweight": 4634,
      "Ġox": 4635,
      "Ġlaid": 4636,
      "Ġdoub": 4637,
      "Ġhabit": 4638,
      "Ġearth": 4639,
      "Ġleaders": 4640,
      "Ġstep": 4641,
      "Ġfloor": 4642,
      "Ġmatter": 4643,
      "Ġaffected": 4644,
      "ĠNorthern": 4645,
      "ĠGal": 4646,
      "Ġpieces": 4647,
      "Ġtun": 4648,
      "Ġ600": 4649,
      "appen": 4650,
      "amber": 4651,
      "Ġpropos": 4652,
      "ĠStorm": 4653,
      "ias": 4654,
      "Ġmaintained": 4655,
      "inson": 4656,
      "Ġrang": 4657,
      "Ġoccasion": 4658,
      "Ġshell": 4659,
      "ĠHard": 4660,
      "Ġhere": 4661,
      "ifying": 4662,
      "Ġvisited": 4663,
      "Ġmaintain": 4664,
      "ental": 4665,
      "Ġcommunic": 4666,
      "ĠDaniel": 4667,
      "ĠHa": 4668,
      "Ġcomes": 4669,
      "Ġspeech": 4670,
      "Ġtermin": 4671,
      "Ġcriticized": 4672,
      "emic": 4673,
      "Ġhyd": 4674,
      "Ġactivities": 4675,
      "stone": 4676,
      "Ġrain": 4677,
      "rat": 4678,
      "ĠJon": 4679,
      "ĠCarolina": 4680,
      "ockey": 4681,
      "Ġexec": 4682,
      "Ġattract": 4683,
      "acement": 4684,
      "Ġhall": 4685,
      "ola": 4686,
      "Ġcitiz": 4687,
      "Ġtournament": 4688,
      "Ġreign": 4689,
      "Ġemph": 4690,
      "Ġtoward": 4691,
      "ocked": 4692,
      "Ġsingles": 4693,
      "uls": 4694,
      "Ġdrug": 4695,
      "Ġtrees": 4696,
      "eed": 4697,
      "Ġreference": 4698,
      "ners": 4699,
      "ĠScottish": 4700,
      "Ġcrowd": 4701,
      "ĠTem": 4702,
      "Ġsenior": 4703,
      "Ġformation": 4704,
      "elve": 4705,
      "Ġ53": 4706,
      "Ġadapt": 4707,
      "Ġ1987": 4708,
      "Ġsurre": 4709,
      "ĠRom": 4710,
      "ĠMarsh": 4711,
      "Ġsetting": 4712,
      "Ġmedical": 4713,
      "ivity": 4714,
      "Ġworldwide": 4715,
      "ĠSystem": 4716,
      "Ġterritory": 4717,
      "Ġtrying": 4718,
      "ĠGovernment": 4719,
      "estic": 4720,
      "ĠHolly": 4721,
      "Ġ1988": 4722,
      "uct": 4723,
      "Ġappl": 4724,
      "Ġstations": 4725,
      "orne": 4726,
      "ruit": 4727,
      "Ġdog": 4728,
      "Ġbul": 4729,
      "Ġnegoti": 4730,
      "Ġbirds": 4731,
      "ĠWrit": 4732,
      "ĠFantasy": 4733,
      "Ġgod": 4734,
      "ĠOcean": 4735,
      "gian": 4736,
      "ĠOperation": 4737,
      "eller": 4738,
      "Ġdoll": 4739,
      "ĠBackground": 4740,
      "ĠField": 4741,
      "Ġmachine": 4742,
      "Ġfellow": 4743,
      "ĠGovernor": 4744,
      "Ġmurder": 4745,
      "embly": 4746,
      "ĠRod": 4747,
      "Ġclaims": 4748,
      "ĠDistrict": 4749,
      "ĠHome": 4750,
      "Ġcell": 4751,
      "Ġdispl": 4752,
      "Ġ85": 4753,
      "ĠDev": 4754,
      "Ġhistorian": 4755,
      "ĠGuard": 4756,
      "Ġrainfall": 4757,
      "Ġrisk": 4758,
      "ĠChe": 4759,
      "omers": 4760,
      "Ġaccident": 4761,
      "ĠPenns": 4762,
      "Ġfully": 4763,
      "ĠColon": 4764,
      "Ġload": 4765,
      "uled": 4766,
      "Ġvalue": 4767,
      "Ġtherefore": 4768,
      "ote": 4769,
      "Ġsplit": 4770,
      "bit": 4771,
      "resh": 4772,
      "ĠDuke": 4773,
      "Ġchosen": 4774,
      "Ġtreatment": 4775,
      "Ġuniversity": 4776,
      "Ġguest": 4777,
      "ĠShort": 4778,
      "velopment": 4779,
      "rael": 4780,
      "Ġsens": 4781,
      "Ġtwice": 4782,
      "ĠStudios": 4783,
      "Ġfrequently": 4784,
      "ĠGirl": 4785,
      "Ġsupply": 4786,
      "agn": 4787,
      "ĠPolish": 4788,
      "ĠLew": 4789,
      "Ġreports": 4790,
      "ordin": 4791,
      "stitution": 4792,
      "Ġleaves": 4793,
      "ĠBeat": 4794,
      "Ġgovernor": 4795,
      "illy": 4796,
      "ayer": 4797,
      "Ġpaper": 4798,
      "gu": 4799,
      "Ġut": 4800,
      "ĠSenate": 4801,
      "Ġremark": 4802,
      "aly": 4803,
      "Ġdyn": 4804,
      "ampion": 4805,
      "ĠEastern": 4806,
      "ledge": 4807,
      "Ġlabel": 4808,
      "izes": 4809,
      "Ġfaced": 4810,
      "azz": 4811,
      "ĠMD": 4812,
      "Ġopin": 4813,
      "Ġwalls": 4814,
      "Ġfollows": 4815,
      "ĠCorn": 4816,
      "Ġbillion": 4817,
      "Ġoperated": 4818,
      "ĠBart": 4819,
      "Ġgrew": 4820,
      "antine": 4821,
      "ĠRos": 4822,
      "ufact": 4823,
      "Ġsurrounding": 4824,
      "Ġplanet": 4825,
      "ĠMean": 4826,
      "min": 4827,
      "Ġswe": 4828,
      "rect": 4829,
      "ĠAndrew": 4830,
      "orter": 4831,
      "antly": 4832,
      "Ġcontained": 4833,
      "onents": 4834,
      "gend": 4835,
      "Ġcondition": 4836,
      "resp": 4837,
      "Ġdegree": 4838,
      "Ġbal": 4839,
      "Ġherself": 4840,
      "Ġhorses": 4841,
      "Ġmanufact": 4842,
      "ĠChristmas": 4843,
      "ĠNight": 4844,
      "ety": 4845,
      "Ġcolor": 4846,
      "isco": 4847,
      "ĠJud": 4848,
      "Ġsle": 4849,
      "Ġaccompan": 4850,
      "Ġwounded": 4851,
      "rance": 4852,
      "Ġtypically": 4853,
      "Ġescape": 4854,
      "ĠAllied": 4855,
      "Ġ54": 4856,
      "Ġpasses": 4857,
      "Ġunf": 4858,
      "Ġmaster": 4859,
      "Ġsimply": 4860,
      "ĠWilson": 4861,
      "Ġbrown": 4862,
      "Ġfuel": 4863,
      "Ã¨": 4864,
      "isters": 4865,
      "Ġreinf": 4866,
      "utation": 4867,
      "Ġrailway": 4868,
      "ĠInst": 4869,
      "Ġelement": 4870,
      "Ġdraft": 4871,
      "Ġdang": 4872,
      "ĠTaylor": 4873,
      "aming": 4874,
      "Ġeditor": 4875,
      "Ġlives": 4876,
      "la": 4877,
      "Ġ1986": 4878,
      "Ġorders": 4879,
      "Ġarms": 4880,
      "ĠElizabeth": 4881,
      "Ġphil": 4882,
      "mit": 4883,
      "fully": 4884,
      "more": 4885,
      "Ġserving": 4886,
      "Ġnothing": 4887,
      "ographer": 4888,
      "Ġcamer": 4889,
      "ĠHum": 4890,
      "ĠAlexander": 4891,
      "uous": 4892,
      "Ġauthority": 4893,
      "Ġchose": 4894,
      "ĠMike": 4895,
      "Ġopposed": 4896,
      "Ġworkers": 4897,
      "Ġvote": 4898,
      "Ġmoment": 4899,
      "ĠGi": 4900,
      "Ġconsecutive": 4901,
      "Ġcannot": 4902,
      "ricult": 4903,
      "ĠPen": 4904,
      "ĠEach": 4905,
      "Ġnewly": 4906,
      "Ġ95": 4907,
      "ĠJoe": 4908,
      "ĠOf": 4909,
      "tar": 4910,
      "Ġnative": 4911,
      "ĠJac": 4912,
      "Ġ56": 4913,
      "Ġfan": 4914,
      "Ġexperiment": 4915,
      "ucky": 4916,
      "Ġunknown": 4917,
      "Ġ97": 4918,
      "isf": 4919,
      "Ġparticipated": 4920,
      "ager": 4921,
      "Ġgrowing": 4922,
      "rich": 4923,
      "ĠPers": 4924,
      "Ġwebsite": 4925,
      "Ġcasual": 4926,
      "Ġemphas": 4927,
      "Ġpsych": 4928,
      "Ġattrib": 4929,
      "ancing": 4930,
      "ãĤ": 4931,
      "ĠDet": 4932,
      "Ġproducers": 4933,
      "ef": 4934,
      "Ġbass": 4935,
      "ĠÎ": 4936,
      "Ġnewspaper": 4937,
      "Ġfair": 4938,
      "ĠCastle": 4939,
      "Ġbenef": 4940,
      "Ġlosing": 4941,
      "Ã¤": 4942,
      "ĠExp": 4943,
      "ĠFestival": 4944,
      "ĠLand": 4945,
      "Ġadvanced": 4946,
      "Ġadopted": 4947,
      "ilies": 4948,
      "Ġfilming": 4949,
      "imens": 4950,
      "ĠSound": 4951,
      "Ġheard": 4952,
      "Ġspirit": 4953,
      "Ġfeed": 4954,
      "Ġsevere": 4955,
      "ĠPennsylvania": 4956,
      "pton": 4957,
      "Ġoffensive": 4958,
      "Ġopposition": 4959,
      "then": 4960,
      "Ġfirm": 4961,
      "Ġfiction": 4962,
      "ype": 4963,
      "ĠRet": 4964,
      "Ġextend": 4965,
      "ĠWhat": 4966,
      "Ġguard": 4967,
      "ĠWat": 4968,
      "Ġcapacity": 4969,
      "Ġrom": 4970,
      "ĠHead": 4971,
      "orship": 4972,
      "ĠIslands": 4973,
      "Ġbasis": 4974,
      "Ġcouncil": 4975,
      "Ġsequence": 4976,
      "Ġactors": 4977,
      "ĠCard": 4978,
      "ĠWW": 4979,
      "zy": 4980,
      "Ġends": 4981,
      "Ġ177": 4982,
      "Ġast": 4983,
      "ĠReception": 4984,
      "ĠHy": 4985,
      "TC": 4986,
      "anda": 4987,
      "Ġweak": 4988,
      "Ġsquadron": 4989,
      "uses": 4990,
      "ĠGall": 4991,
      "ĠBlue": 4992,
      "Ġprin": 4993,
      "Ġcompar": 4994,
      "Ġadvant": 4995,
      "Ġrear": 4996,
      "Ġabandoned": 4997,
      "ura": 4998,
      "aven": 4999
    },
    "merges": [
      [
        "Ġ",
        "t"
      ],
      [
        "h",
        "e"
      ],
      [
        "Ġ",
        "a"
      ],
      [
        "i",
        "n"
      ],
      [
        "Ġt",
        "he"
      ],
      [
        "e",
        "r"
      ],
      [
        "o",
        "n"
      ],
      [
        "Ġ",
        ","
      ],
      [
        "r",
        "e"
      ],
      [
        "Ġ",
        "s"
      ],
      [
        "e",
        "d"
      ],
      [
        "Ġ",
        "w"
      ],
      [
        "Ġ",
        "o"
      ],
      [
        "n",
        "d"
      ],
      [
        "a",
        "t"
      ],
      [
        "Ġ",
        "."
      ],
      [
        "o",
        "r"
      ],
      [
        "e",
        "n"
      ],
      [
        "Ġ",
        "c"
      ],
      [
        "i",
        "t"
      ],
      [
        "Ġ",
        "f"
      ],
      [
        "i",
        "s"
      ],
      [
        "e",
        "s"
      ],
      [
        "a",
        "r"
      ],
      [
        "Ġ",
        "b"
      ],
      [
        "Ġo",
        "f"
      ],
      [
        "a",
        "n"
      ],
      [
        "Ġ",
        "in"
      ],
      [
        "a",
        "l"
      ],
      [
        "in",
        "g"
      ],
      [
        "Ġ",
        "p"
      ],
      [
        "a",
        "s"
      ],
      [
        "Ġa",
        "nd"
      ],
      [
        "Ġt",
        "o"
      ],
      [
        "i",
        "c"
      ],
      [
        "r",
        "o"
      ],
      [
        "Ġ",
        "m"
      ],
      [
        "Ġ",
        "d"
      ],
      [
        "Ġ",
        "h"
      ],
      [
        "i",
        "on"
      ],
      [
        "l",
        "e"
      ],
      [
        "o",
        "u"
      ],
      [
        "Ġ",
        "T"
      ],
      [
        "Ġ",
        "re"
      ],
      [
        "Ġ",
        "="
      ],
      [
        "Ġ",
        "S"
      ],
      [
        "i",
        "l"
      ],
      [
        "Ġ",
        "A"
      ],
      [
        "en",
        "t"
      ],
      [
        "Ġ",
        "\""
      ],
      [
        "Ġ",
        "1"
      ],
      [
        "Ġt",
        "h"
      ],
      [
        "s",
        "t"
      ],
      [
        "e",
        "l"
      ],
      [
        "Ġ",
        "C"
      ],
      [
        "Ġ",
        "l"
      ],
      [
        "Ġ",
        "@"
      ],
      [
        "o",
        "m"
      ],
      [
        "Ġ",
        "e"
      ],
      [
        "Ġ",
        "Ċ"
      ],
      [
        "a",
        "m"
      ],
      [
        "Ġ",
        "n"
      ],
      [
        "a",
        "d"
      ],
      [
        "a",
        "c"
      ],
      [
        "Ġw",
        "as"
      ],
      [
        "Ġ",
        "M"
      ],
      [
        "Ġ",
        "B"
      ],
      [
        "e",
        "c"
      ],
      [
        "Ġ",
        "on"
      ],
      [
        "ĠT",
        "he"
      ],
      [
        "l",
        "y"
      ],
      [
        "u",
        "r"
      ],
      [
        "Ġ",
        "'"
      ],
      [
        "e",
        "t"
      ],
      [
        "i",
        "d"
      ],
      [
        "o",
        "l"
      ],
      [
        "Ġ",
        "g"
      ],
      [
        "i",
        "m"
      ],
      [
        "Ġ",
        "I"
      ],
      [
        "-",
        "@"
      ],
      [
        "Ġ@",
        "-@"
      ],
      [
        "Ġf",
        "or"
      ],
      [
        "i",
        "r"
      ],
      [
        "i",
        "g"
      ],
      [
        "i",
        "v"
      ],
      [
        "o",
        "t"
      ],
      [
        "t",
        "er"
      ],
      [
        "Ġ",
        "H"
      ],
      [
        "u",
        "t"
      ],
      [
        "Ġa",
        "s"
      ],
      [
        "u",
        "s"
      ],
      [
        "o",
        "w"
      ],
      [
        "it",
        "h"
      ],
      [
        "a",
        "y"
      ],
      [
        "Ġ",
        "2"
      ],
      [
        "Ġ",
        "P"
      ],
      [
        "Ġs",
        "t"
      ],
      [
        "Ġ",
        "he"
      ],
      [
        "v",
        "er"
      ],
      [
        "at",
        "ion"
      ],
      [
        "Ġw",
        "ith"
      ],
      [
        "Ġb",
        "e"
      ],
      [
        "Ġ",
        "R"
      ],
      [
        "Ġth",
        "at"
      ],
      [
        "Ġ",
        "D"
      ],
      [
        "c",
        "e"
      ],
      [
        "u",
        "n"
      ],
      [
        "e",
        "m"
      ],
      [
        "Ġ",
        "W"
      ],
      [
        "Ġw",
        "h"
      ],
      [
        "Ġ",
        "F"
      ],
      [
        "c",
        "h"
      ],
      [
        "Ġb",
        "y"
      ],
      [
        "t",
        "h"
      ],
      [
        "Ġa",
        "l"
      ],
      [
        "Ġ",
        ")"
      ],
      [
        "Ġ",
        "("
      ],
      [
        "Ġ",
        "L"
      ],
      [
        "u",
        "l"
      ],
      [
        "Ġ",
        "G"
      ],
      [
        "Ġ",
        "is"
      ],
      [
        "Ġc",
        "on"
      ],
      [
        "er",
        "s"
      ],
      [
        "Ġa",
        "t"
      ],
      [
        "c",
        "t"
      ],
      [
        "Ġ",
        "N"
      ],
      [
        "r",
        "a"
      ],
      [
        "o",
        "s"
      ],
      [
        "Ġ1",
        "9"
      ],
      [
        "Ġa",
        "n"
      ],
      [
        "Ġ",
        "it"
      ],
      [
        "he",
        "r"
      ],
      [
        "ro",
        "m"
      ],
      [
        "a",
        "nd"
      ],
      [
        "u",
        "m"
      ],
      [
        "Ġ",
        "J"
      ],
      [
        "es",
        "t"
      ],
      [
        "0",
        "0"
      ],
      [
        "Ġh",
        "is"
      ],
      [
        "Ġ",
        "E"
      ],
      [
        "a",
        "g"
      ],
      [
        "a",
        "v"
      ],
      [
        "a",
        "in"
      ],
      [
        "r",
        "i"
      ],
      [
        "o",
        "d"
      ],
      [
        "Ġf",
        "rom"
      ],
      [
        "Ġ",
        "O"
      ],
      [
        "is",
        "t"
      ],
      [
        "Ġc",
        "om"
      ],
      [
        "Ġ",
        "v"
      ],
      [
        "Ġp",
        "ro"
      ],
      [
        "o",
        "p"
      ],
      [
        "il",
        "l"
      ],
      [
        "o",
        "re"
      ],
      [
        "i",
        "f"
      ],
      [
        "l",
        "d"
      ],
      [
        "u",
        "p"
      ],
      [
        "Ġ",
        "r"
      ],
      [
        "e",
        "w"
      ],
      [
        "er",
        "e"
      ],
      [
        "re",
        "s"
      ],
      [
        "ig",
        "h"
      ],
      [
        "ĠI",
        "n"
      ],
      [
        "i",
        "es"
      ],
      [
        "Ġd",
        "e"
      ],
      [
        "b",
        "er"
      ],
      [
        "ar",
        "t"
      ],
      [
        "ar",
        "d"
      ],
      [
        "or",
        "t"
      ],
      [
        "Ġs",
        "e"
      ],
      [
        "ic",
        "h"
      ],
      [
        "Ġw",
        "ere"
      ],
      [
        "at",
        "e"
      ],
      [
        "al",
        "l"
      ],
      [
        "a",
        "k"
      ],
      [
        "an",
        "t"
      ],
      [
        "o",
        "c"
      ],
      [
        "u",
        "d"
      ],
      [
        "a",
        "p"
      ],
      [
        "Ġe",
        "x"
      ],
      [
        "q",
        "u"
      ],
      [
        "on",
        "g"
      ],
      [
        "a",
        "b"
      ],
      [
        "Ġc",
        "h"
      ],
      [
        "Ġo",
        "r"
      ],
      [
        "Ġ",
        "K"
      ],
      [
        "g",
        "h"
      ],
      [
        "e",
        "ar"
      ],
      [
        "es",
        "s"
      ],
      [
        "at",
        "ed"
      ],
      [
        "Ġp",
        "l"
      ],
      [
        "Ġs",
        "h"
      ],
      [
        "it",
        "y"
      ],
      [
        "i",
        "p"
      ],
      [
        "iv",
        "e"
      ],
      [
        "am",
        "e"
      ],
      [
        "Ġ",
        "U"
      ],
      [
        "Ġ",
        "â"
      ],
      [
        "Ġh",
        "ad"
      ],
      [
        "ec",
        "t"
      ],
      [
        "ac",
        "k"
      ],
      [
        "ĠS",
        "t"
      ],
      [
        "Ġâ",
        "Ģ"
      ],
      [
        "Ġs",
        "u"
      ],
      [
        "as",
        "t"
      ],
      [
        "s",
        "e"
      ],
      [
        "re",
        "d"
      ],
      [
        "Ġ",
        "k"
      ],
      [
        "g",
        "e"
      ],
      [
        "Ġwh",
        "ich"
      ],
      [
        "ou",
        "r"
      ],
      [
        "m",
        "ent"
      ],
      [
        "Ġ",
        "le"
      ],
      [
        "u",
        "nd"
      ],
      [
        "Ġa",
        "re"
      ],
      [
        "o",
        "v"
      ],
      [
        "i",
        "an"
      ],
      [
        "i",
        "al"
      ],
      [
        "Ġn",
        "ot"
      ],
      [
        "el",
        "l"
      ],
      [
        "Ġs",
        "p"
      ],
      [
        "o",
        "st"
      ],
      [
        "Ġ",
        "y"
      ],
      [
        "igh",
        "t"
      ],
      [
        "i",
        "a"
      ],
      [
        "or",
        "d"
      ],
      [
        "u",
        "st"
      ],
      [
        "ar",
        "y"
      ],
      [
        "in",
        "e"
      ],
      [
        "t",
        "her"
      ],
      [
        "p",
        "t"
      ],
      [
        "r",
        "it"
      ],
      [
        "Ġ",
        "3"
      ],
      [
        "ou",
        "n"
      ],
      [
        "p",
        "p"
      ],
      [
        "ic",
        "al"
      ],
      [
        "ĠC",
        "h"
      ],
      [
        "av",
        "e"
      ],
      [
        "Ġ",
        "un"
      ],
      [
        "Ġ2",
        "00"
      ],
      [
        "c",
        "c"
      ],
      [
        "Ġin",
        "c"
      ],
      [
        "f",
        "ter"
      ],
      [
        "ou",
        "ld"
      ],
      [
        "Ġ",
        "V"
      ],
      [
        "Ġb",
        "ut"
      ],
      [
        "ir",
        "st"
      ],
      [
        "is",
        "h"
      ],
      [
        "ou",
        "s"
      ],
      [
        "t",
        "e"
      ],
      [
        "f",
        "f"
      ],
      [
        "ion",
        "s"
      ],
      [
        "s",
        "o"
      ],
      [
        "Ġcom",
        "p"
      ],
      [
        "Ġ2",
        "0"
      ],
      [
        "id",
        "e"
      ],
      [
        "Ġ",
        "ro"
      ],
      [
        "u",
        "re"
      ],
      [
        "Ġw",
        "he"
      ],
      [
        "u",
        "b"
      ],
      [
        "Ġa",
        "r"
      ],
      [
        "Ġcon",
        "t"
      ],
      [
        "i",
        "e"
      ],
      [
        "Ġ",
        ";"
      ],
      [
        "o",
        "g"
      ],
      [
        "ig",
        "n"
      ],
      [
        "Ġf",
        "irst"
      ],
      [
        "Ġc",
        "l"
      ],
      [
        "w",
        "o"
      ],
      [
        "Ġhe",
        "r"
      ],
      [
        "r",
        "y"
      ],
      [
        "u",
        "e"
      ],
      [
        "Ġit",
        "s"
      ],
      [
        "as",
        "s"
      ],
      [
        "Ġthe",
        "ir"
      ],
      [
        "or",
        "m"
      ],
      [
        "ĠâĢ",
        "ĵ"
      ],
      [
        "o",
        "k"
      ],
      [
        "or",
        "k"
      ],
      [
        "Ġin",
        "t"
      ],
      [
        "Ġre",
        "s"
      ],
      [
        "ĠH",
        "e"
      ],
      [
        "Ġ",
        ":"
      ],
      [
        "at",
        "er"
      ],
      [
        "Ġal",
        "so"
      ],
      [
        "Ġa",
        "b"
      ],
      [
        "on",
        "d"
      ],
      [
        "Ġa",
        "d"
      ],
      [
        "om",
        "e"
      ],
      [
        "ou",
        "t"
      ],
      [
        "r",
        "an"
      ],
      [
        "m",
        "er"
      ],
      [
        "i",
        "re"
      ],
      [
        "he",
        "d"
      ],
      [
        "r",
        "u"
      ],
      [
        "Ġ",
        "us"
      ],
      [
        "ag",
        "e"
      ],
      [
        "d",
        "u"
      ],
      [
        "Ġ",
        "4"
      ],
      [
        "im",
        "e"
      ],
      [
        "l",
        "ow"
      ],
      [
        "Ġp",
        "er"
      ],
      [
        "p",
        "er"
      ],
      [
        "Ġwh",
        "o"
      ],
      [
        "Ġ",
        "5"
      ],
      [
        "ĠT",
        "h"
      ],
      [
        "Ġon",
        "e"
      ],
      [
        "Ġh",
        "ave"
      ],
      [
        "Ġs",
        "c"
      ],
      [
        "p",
        "l"
      ],
      [
        "al",
        "ly"
      ],
      [
        "ow",
        "n"
      ],
      [
        "i",
        "le"
      ],
      [
        "Ġre",
        "c"
      ],
      [
        "Ġ1",
        "8"
      ],
      [
        "t",
        "ed"
      ],
      [
        ".",
        "@"
      ],
      [
        "Ġ@",
        ".@"
      ],
      [
        "Ġt",
        "wo"
      ],
      [
        "it",
        "ion"
      ],
      [
        "u",
        "gh"
      ],
      [
        "i",
        "z"
      ],
      [
        "re",
        "e"
      ],
      [
        "en",
        "ce"
      ],
      [
        "t",
        "s"
      ],
      [
        "ur",
        "ing"
      ],
      [
        "p",
        "ort"
      ],
      [
        "Ġbe",
        "en"
      ],
      [
        "Ġp",
        "art"
      ],
      [
        "Ġb",
        "ec"
      ],
      [
        "ic",
        "e"
      ],
      [
        "Ġh",
        "as"
      ],
      [
        "ĠA",
        "l"
      ],
      [
        "Ġa",
        "g"
      ],
      [
        "Ġa",
        "pp"
      ],
      [
        "Ġ20",
        "1"
      ],
      [
        "ou",
        "gh"
      ],
      [
        ",",
        "@"
      ],
      [
        "Ġ@",
        ",@"
      ],
      [
        "Ġ",
        "j"
      ],
      [
        "Ġ",
        "en"
      ],
      [
        "Ġd",
        "is"
      ],
      [
        "l",
        "ud"
      ],
      [
        "k",
        "e"
      ],
      [
        "Ġo",
        "ver"
      ],
      [
        "Ġs",
        "er"
      ],
      [
        "Ġth",
        "is"
      ],
      [
        "or",
        "y"
      ],
      [
        "el",
        "y"
      ],
      [
        "Ġy",
        "ear"
      ],
      [
        "ation",
        "s"
      ],
      [
        "em",
        "ber"
      ],
      [
        "re",
        "n"
      ],
      [
        "ct",
        "ion"
      ],
      [
        "ou",
        "nd"
      ],
      [
        "ac",
        "h"
      ],
      [
        "Ġof",
        "f"
      ],
      [
        "Ġa",
        "fter"
      ],
      [
        "r",
        "ic"
      ],
      [
        "Ġ",
        "up"
      ],
      [
        "l",
        "and"
      ],
      [
        "Ġpl",
        "ay"
      ],
      [
        "Ġd",
        "es"
      ],
      [
        "ac",
        "e"
      ],
      [
        "ĠI",
        "t"
      ],
      [
        "ar",
        "k"
      ],
      [
        "o",
        "ver"
      ],
      [
        "an",
        "ce"
      ],
      [
        "Ġo",
        "ut"
      ],
      [
        "Ġthe",
        "y"
      ],
      [
        "Ġm",
        "an"
      ],
      [
        "ad",
        "e"
      ],
      [
        "Ġt",
        "e"
      ],
      [
        "ac",
        "t"
      ],
      [
        "Ġo",
        "ther"
      ],
      [
        "i",
        "b"
      ],
      [
        "m",
        "an"
      ],
      [
        "ul",
        "t"
      ],
      [
        "Ġ",
        "im"
      ],
      [
        "Ġ",
        "Y"
      ],
      [
        "p",
        "h"
      ],
      [
        "res",
        "s"
      ],
      [
        "Ġinc",
        "lud"
      ],
      [
        "c",
        "ed"
      ],
      [
        "en",
        "s"
      ],
      [
        "ur",
        "n"
      ],
      [
        "w",
        "n"
      ],
      [
        "Ġw",
        "ould"
      ],
      [
        "in",
        "d"
      ],
      [
        "Ġt",
        "ime"
      ],
      [
        "on",
        "e"
      ],
      [
        "Ġp",
        "re"
      ],
      [
        "Ġint",
        "o"
      ],
      [
        "v",
        "el"
      ],
      [
        "ĠO",
        "n"
      ],
      [
        "ĠU",
        "n"
      ],
      [
        "w",
        "ard"
      ],
      [
        "w",
        "e"
      ],
      [
        "Ġw",
        "e"
      ],
      [
        "Ġh",
        "im"
      ],
      [
        "it",
        "e"
      ],
      [
        "o",
        "in"
      ],
      [
        "at",
        "es"
      ],
      [
        "Ġ",
        "6"
      ],
      [
        "Ġs",
        "he"
      ],
      [
        "l",
        "es"
      ],
      [
        "Ġe",
        "v"
      ],
      [
        "il",
        "m"
      ],
      [
        "Ġat",
        "t"
      ],
      [
        "as",
        "ed"
      ],
      [
        "Ġn",
        "e"
      ],
      [
        "it",
        "ed"
      ],
      [
        "ab",
        "le"
      ],
      [
        "e",
        "nd"
      ],
      [
        "i",
        "ed"
      ],
      [
        "as",
        "e"
      ],
      [
        "am",
        "p"
      ],
      [
        "Ġcom",
        "m"
      ],
      [
        "or",
        "s"
      ],
      [
        "Ġin",
        "ter"
      ],
      [
        "a",
        "re"
      ],
      [
        "ro",
        "ugh"
      ],
      [
        "o",
        "y"
      ],
      [
        "on",
        "s"
      ],
      [
        "oun",
        "t"
      ],
      [
        "e",
        "p"
      ],
      [
        "f",
        "orm"
      ],
      [
        "Ġal",
        "l"
      ],
      [
        "os",
        "e"
      ],
      [
        "o",
        "od"
      ],
      [
        "an",
        "g"
      ],
      [
        "Ġm",
        "ore"
      ],
      [
        "c",
        "es"
      ],
      [
        "Ġw",
        "ork"
      ],
      [
        "Ġ",
        "7"
      ],
      [
        "a",
        "il"
      ],
      [
        "ol",
        "d"
      ],
      [
        "a",
        "w"
      ],
      [
        "er",
        "ed"
      ],
      [
        "ing",
        "s"
      ],
      [
        "v",
        "e"
      ],
      [
        "il",
        "d"
      ],
      [
        "ĠA",
        "n"
      ],
      [
        "Ġn",
        "ew"
      ],
      [
        "Ġs",
        "ec"
      ],
      [
        "Ġb",
        "et"
      ],
      [
        "Ġwhe",
        "n"
      ],
      [
        "in",
        "al"
      ],
      [
        "Ġf",
        "e"
      ],
      [
        "Ġf",
        "ilm"
      ],
      [
        "ic",
        "k"
      ],
      [
        "v",
        "i"
      ],
      [
        "ent",
        "s"
      ],
      [
        "ĠS",
        "e"
      ],
      [
        "w",
        "ay"
      ],
      [
        "at",
        "t"
      ],
      [
        "f",
        "t"
      ],
      [
        "is",
        "s"
      ],
      [
        "a",
        "us"
      ],
      [
        "f",
        "er"
      ],
      [
        "Ġ",
        "8"
      ],
      [
        "g",
        "an"
      ],
      [
        "ĠM",
        "ar"
      ],
      [
        "re",
        "at"
      ],
      [
        "ri",
        "b"
      ],
      [
        "Ġcon",
        "s"
      ],
      [
        "ĠA",
        "r"
      ],
      [
        "ro",
        "und"
      ],
      [
        "ak",
        "e"
      ],
      [
        "Ġre",
        "m"
      ],
      [
        "v",
        "ed"
      ],
      [
        "Ġt",
        "r"
      ],
      [
        "Ġd",
        "ec"
      ],
      [
        "as",
        "on"
      ],
      [
        "an",
        "s"
      ],
      [
        "Ġd",
        "uring"
      ],
      [
        "Ġ",
        "und"
      ],
      [
        "or",
        "th"
      ],
      [
        "ub",
        "l"
      ],
      [
        "Ġ",
        "9"
      ],
      [
        "h",
        "ip"
      ],
      [
        "Ġag",
        "ain"
      ],
      [
        "ĠA",
        "s"
      ],
      [
        "Ġm",
        "ost"
      ],
      [
        "Ġg",
        "ame"
      ],
      [
        "ot",
        "h"
      ],
      [
        "Ġthe",
        "m"
      ],
      [
        "Ġ19",
        "9"
      ],
      [
        "Ġon",
        "ly"
      ],
      [
        "Ġp",
        "r"
      ],
      [
        "at",
        "h"
      ],
      [
        "we",
        "en"
      ],
      [
        "i",
        "x"
      ],
      [
        "Ġe",
        "ar"
      ],
      [
        "ol",
        "low"
      ],
      [
        "Ġth",
        "an"
      ],
      [
        "o",
        "b"
      ],
      [
        "ro",
        "p"
      ],
      [
        "Ġs",
        "up"
      ],
      [
        "ation",
        "al"
      ],
      [
        "f",
        "ore"
      ],
      [
        "ĠN",
        "ew"
      ],
      [
        "Ġab",
        "out"
      ],
      [
        "Ġpro",
        "du"
      ],
      [
        "u",
        "g"
      ],
      [
        "Ġc",
        "ent"
      ],
      [
        "ter",
        "n"
      ],
      [
        "Ġk",
        "n"
      ],
      [
        "Ġre",
        "t"
      ],
      [
        "e",
        "y"
      ],
      [
        "Ġch",
        "ar"
      ],
      [
        "Ġs",
        "ong"
      ],
      [
        "Ġc",
        "an"
      ],
      [
        "ou",
        "th"
      ],
      [
        "Ġbet",
        "ween"
      ],
      [
        "Ġl",
        "ater"
      ],
      [
        "or",
        "n"
      ],
      [
        "Ġre",
        "le"
      ],
      [
        "Ġund",
        "er"
      ],
      [
        "ic",
        "t"
      ],
      [
        "Ġth",
        "ree"
      ],
      [
        "h",
        "n"
      ],
      [
        "t",
        "on"
      ],
      [
        "Ġc",
        "ol"
      ],
      [
        "r",
        "on"
      ],
      [
        "Ġa",
        "ct"
      ],
      [
        "Ġ",
        "00"
      ],
      [
        "al",
        "s"
      ],
      [
        "Ġ",
        "qu"
      ],
      [
        "Ġth",
        "rough"
      ],
      [
        "ĠE",
        "n"
      ],
      [
        "or",
        "ld"
      ],
      [
        "o",
        "ok"
      ],
      [
        "Ġn",
        "um"
      ],
      [
        "Ġs",
        "o"
      ],
      [
        "Ġm",
        "e"
      ],
      [
        "Ġa",
        "cc"
      ],
      [
        "Ġre",
        "l"
      ],
      [
        "Ġwh",
        "ile"
      ],
      [
        "Ġ",
        "ra"
      ],
      [
        "Ġe",
        "nd"
      ],
      [
        "mer",
        "ic"
      ],
      [
        "ĠL",
        "e"
      ],
      [
        "le",
        "ct"
      ],
      [
        "ĠA",
        "meric"
      ],
      [
        "Ġf",
        "l"
      ],
      [
        "ter",
        "s"
      ],
      [
        "oc",
        "k"
      ],
      [
        "Ġp",
        "os"
      ],
      [
        "r",
        "al"
      ],
      [
        "Ġsu",
        "b"
      ],
      [
        "e",
        "ver"
      ],
      [
        "ul",
        "ar"
      ],
      [
        "Ġas",
        "s"
      ],
      [
        "at",
        "ing"
      ],
      [
        "Ġwhe",
        "re"
      ],
      [
        "Ġ",
        "ver"
      ],
      [
        "Ġd",
        "ay"
      ],
      [
        "c",
        "k"
      ],
      [
        "Ġre",
        "g"
      ],
      [
        "Ġsec",
        "ond"
      ],
      [
        "en",
        "er"
      ],
      [
        "a",
        "id"
      ],
      [
        "Ġb",
        "u"
      ],
      [
        "ĠC",
        "om"
      ],
      [
        "Ġm",
        "ade"
      ],
      [
        "am",
        "es"
      ],
      [
        "is",
        "ion"
      ],
      [
        "iv",
        "ed"
      ],
      [
        "ĠR",
        "e"
      ],
      [
        "Ġp",
        "e"
      ],
      [
        "he",
        "s"
      ],
      [
        "Ġrec",
        "ord"
      ],
      [
        "s",
        "on"
      ],
      [
        "Ġde",
        "f"
      ],
      [
        "b",
        "um"
      ],
      [
        "Ġf",
        "our"
      ],
      [
        "Ġg",
        "ro"
      ],
      [
        "Ġf",
        "ollow"
      ],
      [
        "Ġse",
        "ason"
      ],
      [
        "Ġ00",
        "0"
      ],
      [
        "Ġe",
        "p"
      ],
      [
        "Ġfor",
        "m"
      ],
      [
        "Ġs",
        "ome"
      ],
      [
        "Ġsu",
        "ch"
      ],
      [
        "Ġa",
        "m"
      ],
      [
        "o",
        "ol"
      ],
      [
        "is",
        "hed"
      ],
      [
        "Ġm",
        "ov"
      ],
      [
        "Ġbe",
        "fore"
      ],
      [
        "Ġt",
        "ra"
      ],
      [
        "Ġm",
        "us"
      ],
      [
        "ĠS",
        "p"
      ],
      [
        "Ġthe",
        "re"
      ],
      [
        "Ġw",
        "rit"
      ],
      [
        "he",
        "n"
      ],
      [
        "ic",
        "s"
      ],
      [
        "ĠJ",
        "o"
      ],
      [
        "i",
        "o"
      ],
      [
        "Ġsp",
        "ec"
      ],
      [
        "i",
        "el"
      ],
      [
        "Ġ1",
        "0"
      ],
      [
        "i",
        "ke"
      ],
      [
        "Ġs",
        "y"
      ],
      [
        "Ġyear",
        "s"
      ],
      [
        "Ġte",
        "am"
      ],
      [
        "ĠA",
        "t"
      ],
      [
        "od",
        "e"
      ],
      [
        "u",
        "al"
      ],
      [
        "ĠTh",
        "is"
      ],
      [
        "id",
        "ent"
      ],
      [
        "Ġ",
        "/"
      ],
      [
        "Ġl",
        "ar"
      ],
      [
        "Ġal",
        "bum"
      ],
      [
        "ĠS",
        "h"
      ],
      [
        "Ġin",
        "d"
      ],
      [
        "ro",
        "s"
      ],
      [
        "il",
        "y"
      ],
      [
        "ow",
        "ever"
      ],
      [
        "Ġ",
        "ent"
      ],
      [
        "n",
        "ing"
      ],
      [
        "Ġus",
        "ed"
      ],
      [
        "Ġc",
        "all"
      ],
      [
        "an",
        "k"
      ],
      [
        "Ġs",
        "ur"
      ],
      [
        "if",
        "ic"
      ],
      [
        "Ġa",
        "c"
      ],
      [
        "Ġh",
        "igh"
      ],
      [
        "ur",
        "y"
      ],
      [
        "Ġp",
        "ubl"
      ],
      [
        "Ġbe",
        "ing"
      ],
      [
        "Ġep",
        "is"
      ],
      [
        "ain",
        "ed"
      ],
      [
        "Ġthe",
        "n"
      ],
      [
        "l",
        "ed"
      ],
      [
        "t",
        "en"
      ],
      [
        "vel",
        "op"
      ],
      [
        "a",
        "j"
      ],
      [
        "Ġd",
        "o"
      ],
      [
        "Ġl",
        "oc"
      ],
      [
        "Ġex",
        "p"
      ],
      [
        "if",
        "e"
      ],
      [
        "r",
        "is"
      ],
      [
        "Ġ1",
        "7"
      ],
      [
        "Ġagain",
        "st"
      ],
      [
        "Ġin",
        "v"
      ],
      [
        "Ġ",
        "0"
      ],
      [
        "Ġb",
        "l"
      ],
      [
        "Ġp",
        "res"
      ],
      [
        "Ġsh",
        "ow"
      ],
      [
        "ot",
        "her"
      ],
      [
        "Ġnum",
        "ber"
      ],
      [
        "ĠA",
        "fter"
      ],
      [
        "Ġchar",
        "ac"
      ],
      [
        "i",
        "ous"
      ],
      [
        "Ġse",
        "ver"
      ],
      [
        "Ġad",
        "d"
      ],
      [
        "Ġc",
        "o"
      ],
      [
        "Ġs",
        "et"
      ],
      [
        "e",
        "k"
      ],
      [
        "in",
        "ce"
      ],
      [
        "j",
        "ect"
      ],
      [
        "ar",
        "s"
      ],
      [
        "Ġbec",
        "ame"
      ],
      [
        "Ġre",
        "ce"
      ],
      [
        "ĠB",
        "rit"
      ],
      [
        "aus",
        "e"
      ],
      [
        "Ġle",
        "ad"
      ],
      [
        "Ġper",
        "form"
      ],
      [
        "Ġn",
        "o"
      ],
      [
        "Ġinclud",
        "ing"
      ],
      [
        "Ġs",
        "ing"
      ],
      [
        "at",
        "her"
      ],
      [
        "in",
        "s"
      ],
      [
        "ĠâĢ",
        "Ķ"
      ],
      [
        "in",
        "es"
      ],
      [
        "Ġf",
        "ound"
      ],
      [
        "ĠUn",
        "ited"
      ],
      [
        "ran",
        "s"
      ],
      [
        "a",
        "ir"
      ],
      [
        "Ġw",
        "ell"
      ],
      [
        "al",
        "e"
      ],
      [
        "Ġm",
        "on"
      ],
      [
        "Ġre",
        "p"
      ],
      [
        "ĠS",
        "c"
      ],
      [
        "Ġp",
        "ol"
      ],
      [
        "Ġb",
        "ack"
      ],
      [
        "Ġb",
        "oth"
      ],
      [
        "i",
        "er"
      ],
      [
        "Ġc",
        "ap"
      ],
      [
        "Ġ19",
        "8"
      ],
      [
        "Ġser",
        "ies"
      ],
      [
        "Ġ1",
        "5"
      ],
      [
        "Ġ1",
        "2"
      ],
      [
        "o",
        "ber"
      ],
      [
        "r",
        "am"
      ],
      [
        "ĠC",
        "on"
      ],
      [
        "i",
        "k"
      ],
      [
        "ow",
        "er"
      ],
      [
        "Ġsh",
        "ip"
      ],
      [
        "em",
        "ent"
      ],
      [
        "it",
        "s"
      ],
      [
        "er",
        "t"
      ],
      [
        "i",
        "red"
      ],
      [
        "u",
        "res"
      ],
      [
        "le",
        "y"
      ],
      [
        "ĠW",
        "h"
      ],
      [
        "ĠS",
        "he"
      ],
      [
        "iv",
        "ers"
      ],
      [
        "Ġm",
        "ain"
      ],
      [
        "p",
        "en"
      ],
      [
        "Ġ19",
        "4"
      ],
      [
        "Ġm",
        "in"
      ],
      [
        "i",
        "et"
      ],
      [
        "d",
        "er"
      ],
      [
        "over",
        "n"
      ],
      [
        "Ġd",
        "id"
      ],
      [
        "v",
        "en"
      ],
      [
        "Ġg",
        "o"
      ],
      [
        "Ġc",
        "re"
      ],
      [
        "el",
        "f"
      ],
      [
        "ol",
        "og"
      ],
      [
        "Ġim",
        "p"
      ],
      [
        "Ġde",
        "velop"
      ],
      [
        "Ġm",
        "et"
      ],
      [
        "a",
        "z"
      ],
      [
        "it",
        "ies"
      ],
      [
        "ĠEn",
        "g"
      ],
      [
        "Ġl",
        "ong"
      ],
      [
        "iv",
        "er"
      ],
      [
        "an",
        "y"
      ],
      [
        "l",
        "l"
      ],
      [
        "is",
        "ed"
      ],
      [
        "er",
        "m"
      ],
      [
        "t",
        "ing"
      ],
      [
        "u",
        "ch"
      ],
      [
        "a",
        "red"
      ],
      [
        "an",
        "n"
      ],
      [
        "an",
        "e"
      ],
      [
        "ir",
        "d"
      ],
      [
        "Ġe",
        "m"
      ],
      [
        "ĠJo",
        "hn"
      ],
      [
        "Ġm",
        "ill"
      ],
      [
        "f",
        "ul"
      ],
      [
        "Ġa",
        "ir"
      ],
      [
        "Ġm",
        "at"
      ],
      [
        "Ġepis",
        "ode"
      ],
      [
        "te",
        "nd"
      ],
      [
        "ire",
        "ct"
      ],
      [
        "Ġs",
        "aid"
      ],
      [
        "Ġst",
        "ud"
      ],
      [
        "Ġman",
        "y"
      ],
      [
        "ut",
        "e"
      ],
      [
        "Ġb",
        "ro"
      ],
      [
        "as",
        "h"
      ],
      [
        "at",
        "ive"
      ],
      [
        "Ġde",
        "p"
      ],
      [
        "Ġc",
        "ar"
      ],
      [
        "Ġ1",
        "6"
      ],
      [
        "Ġc",
        "ould"
      ],
      [
        "Ġor",
        "ig"
      ],
      [
        "Ġw",
        "ar"
      ],
      [
        "Ġcont",
        "in"
      ],
      [
        "ĠC",
        "l"
      ],
      [
        "Ġsever",
        "al"
      ],
      [
        "ĠAmeric",
        "an"
      ],
      [
        "th",
        "ough"
      ],
      [
        "Ġd",
        "if"
      ],
      [
        "ĠI",
        "nd"
      ],
      [
        "iel",
        "d"
      ],
      [
        "a",
        "h"
      ],
      [
        "Ġin",
        "st"
      ],
      [
        "Ġp",
        "op"
      ],
      [
        "ou",
        "se"
      ],
      [
        "is",
        "e"
      ],
      [
        "em",
        "b"
      ],
      [
        "Ġkn",
        "own"
      ],
      [
        "Ġ19",
        "7"
      ],
      [
        "t",
        "y"
      ],
      [
        "u",
        "ally"
      ],
      [
        "Ġ19",
        "6"
      ],
      [
        "ĠA",
        "ust"
      ],
      [
        "Ġ1",
        "1"
      ],
      [
        "Ġcon",
        "c"
      ],
      [
        "t",
        "il"
      ],
      [
        "i",
        "am"
      ],
      [
        "ĠW",
        "ar"
      ],
      [
        "vi",
        "ew"
      ],
      [
        "ers",
        "on"
      ],
      [
        "Ġo",
        "b"
      ],
      [
        "u",
        "ed"
      ],
      [
        "ĠG",
        "er"
      ],
      [
        "Ġs",
        "m"
      ],
      [
        "Ġret",
        "urn"
      ],
      [
        "Ġan",
        "y"
      ],
      [
        "Ġbe",
        "gan"
      ],
      [
        "Ġ",
        "Z"
      ],
      [
        "er",
        "n"
      ],
      [
        "Ġcomp",
        "le"
      ],
      [
        "Ġdes",
        "ign"
      ],
      [
        "ĠD",
        "e"
      ],
      [
        "Ġdes",
        "c"
      ],
      [
        "Ġs",
        "ign"
      ],
      [
        "op",
        "le"
      ],
      [
        "ch",
        "ool"
      ],
      [
        "ros",
        "s"
      ],
      [
        "m",
        "y"
      ],
      [
        "is",
        "m"
      ],
      [
        "o",
        "ot"
      ],
      [
        "Ġ",
        "est"
      ],
      [
        "Ġt",
        "rans"
      ],
      [
        "cc",
        "ess"
      ],
      [
        "Ġpro",
        "v"
      ],
      [
        "ak",
        "ing"
      ],
      [
        "Ġfe",
        "at"
      ],
      [
        "ĠB",
        "l"
      ],
      [
        "id",
        "ed"
      ],
      [
        "Ġin",
        "f"
      ],
      [
        "an",
        "c"
      ],
      [
        "Ġr",
        "un"
      ],
      [
        "Ġear",
        "ly"
      ],
      [
        "Ġar",
        "t"
      ],
      [
        "iz",
        "ed"
      ],
      [
        "Ġd",
        "ist"
      ],
      [
        "Ġmus",
        "ic"
      ],
      [
        "Ġo",
        "wn"
      ],
      [
        "Ġn",
        "ear"
      ],
      [
        "Ġrele",
        "ased"
      ],
      [
        "Ġun",
        "til"
      ],
      [
        "Ġcall",
        "ed"
      ],
      [
        "Ġe",
        "ff"
      ],
      [
        "ĠC",
        "ol"
      ],
      [
        "im",
        "es"
      ],
      [
        "ĠU",
        "S"
      ],
      [
        "r",
        "id"
      ],
      [
        "ist",
        "s"
      ],
      [
        "Ġres",
        "p"
      ],
      [
        "un",
        "e"
      ],
      [
        "Ġb",
        "el"
      ],
      [
        "en",
        "n"
      ],
      [
        "Ġp",
        "ass"
      ],
      [
        "st",
        "em"
      ],
      [
        "u",
        "red"
      ],
      [
        "Ġf",
        "in"
      ],
      [
        "ial",
        "ly"
      ],
      [
        "ĠM",
        "ay"
      ],
      [
        "Ġp",
        "h"
      ],
      [
        "ut",
        "ion"
      ],
      [
        "Ġd",
        "own"
      ],
      [
        "Ġdis",
        "c"
      ],
      [
        "ment",
        "s"
      ],
      [
        "Ġc",
        "rit"
      ],
      [
        "os",
        "ed"
      ],
      [
        "x",
        "t"
      ],
      [
        "Ġd",
        "irect"
      ],
      [
        "Ġg",
        "ener"
      ],
      [
        "Ġal",
        "ong"
      ],
      [
        "i",
        "um"
      ],
      [
        "Ġin",
        "s"
      ],
      [
        "Ġmill",
        "ion"
      ],
      [
        "g",
        "er"
      ],
      [
        "ul",
        "l"
      ],
      [
        "ĠBrit",
        "ish"
      ],
      [
        "a",
        "x"
      ],
      [
        "Ġgro",
        "up"
      ],
      [
        "Ġoff",
        "ic"
      ],
      [
        "v",
        "ent"
      ],
      [
        "ĠGer",
        "man"
      ],
      [
        "Ġ1",
        "3"
      ],
      [
        "Ġf",
        "am"
      ],
      [
        "e",
        "b"
      ],
      [
        "Ġthe",
        "se"
      ],
      [
        "aj",
        "or"
      ],
      [
        "Ġm",
        "od"
      ],
      [
        "Ġm",
        "ay"
      ],
      [
        "Ġ",
        "$"
      ],
      [
        "ce",
        "pt"
      ],
      [
        "ĠA",
        "d"
      ],
      [
        "Ġo",
        "pen"
      ],
      [
        "an",
        "ge"
      ],
      [
        "Ġm",
        "il"
      ],
      [
        "ĠB",
        "e"
      ],
      [
        "Ġp",
        "oin"
      ],
      [
        "u",
        "c"
      ],
      [
        "g",
        "g"
      ],
      [
        "Ġl",
        "and"
      ],
      [
        "Ġs",
        "im"
      ],
      [
        "Ġhis",
        "t"
      ],
      [
        "ĠA",
        "ug"
      ],
      [
        "Ġg",
        "overn"
      ],
      [
        "Ã",
        "©"
      ],
      [
        "ĠSe",
        "pt"
      ],
      [
        "Ġsu",
        "ccess"
      ],
      [
        "ĠSept",
        "ember"
      ],
      [
        "ĠAug",
        "ust"
      ],
      [
        "et",
        "s"
      ],
      [
        "ĠA",
        "p"
      ],
      [
        "ĠW",
        "orld"
      ],
      [
        "ĠSt",
        "ates"
      ],
      [
        "ib",
        "le"
      ],
      [
        "in",
        "k"
      ],
      [
        "er",
        "v"
      ],
      [
        "Ġg",
        "u"
      ],
      [
        "Ġo",
        "per"
      ],
      [
        "Ġc",
        "ount"
      ],
      [
        "Ġatt",
        "ack"
      ],
      [
        "Ġus",
        "e"
      ],
      [
        "Ġs",
        "ame"
      ],
      [
        "y",
        "s"
      ],
      [
        "ward",
        "s"
      ],
      [
        "Ġdesc",
        "rib"
      ],
      [
        "Ġpe",
        "ople"
      ],
      [
        "ĠI",
        "s"
      ],
      [
        "ĠF",
        "or"
      ],
      [
        "ac",
        "ed"
      ],
      [
        "Ġcharac",
        "ter"
      ],
      [
        "y",
        "p"
      ],
      [
        "am",
        "ed"
      ],
      [
        "Ġbec",
        "ause"
      ],
      [
        "ĠAl",
        "l"
      ],
      [
        "el",
        "s"
      ],
      [
        "Ġv",
        "i"
      ],
      [
        "Ġ1",
        "4"
      ],
      [
        "Ġl",
        "ike"
      ],
      [
        "Ġser",
        "v"
      ],
      [
        "ĠJ",
        "u"
      ],
      [
        "ĠF",
        "ran"
      ],
      [
        "g",
        "ed"
      ],
      [
        "Ġa",
        "round"
      ],
      [
        "Ġst",
        "art"
      ],
      [
        "Ġth",
        "ough"
      ],
      [
        "Ġ",
        "ed"
      ],
      [
        "Ġ19",
        "5"
      ],
      [
        "ĠP",
        "l"
      ],
      [
        "Ġ",
        "Q"
      ],
      [
        "n",
        "er"
      ],
      [
        "Ġw",
        "in"
      ],
      [
        "Ġk",
        "m"
      ],
      [
        "Ġcon",
        "st"
      ],
      [
        "u",
        "es"
      ],
      [
        "r",
        "ing"
      ],
      [
        "Ġto",
        "ok"
      ],
      [
        "Ġo",
        "cc"
      ],
      [
        "ru",
        "ct"
      ],
      [
        "av",
        "ing"
      ],
      [
        "ĠAust",
        "ral"
      ],
      [
        "Ġb",
        "att"
      ],
      [
        "ĠO",
        "ct"
      ],
      [
        "Ġan",
        "n"
      ],
      [
        "Ġsup",
        "port"
      ],
      [
        "ov",
        "e"
      ],
      [
        "ĠN",
        "ov"
      ],
      [
        "Ġfollow",
        "ing"
      ],
      [
        "Ġs",
        "ix"
      ],
      [
        "Ġn",
        "orth"
      ],
      [
        "Ġe",
        "le"
      ],
      [
        "ĠC",
        "ar"
      ],
      [
        "Ġ19",
        "3"
      ],
      [
        "ĠH",
        "owever"
      ],
      [
        "Ġsy",
        "stem"
      ],
      [
        "Ġapp",
        "ear"
      ],
      [
        "us",
        "s"
      ],
      [
        "Ġf",
        "inal"
      ],
      [
        "Ġrece",
        "ived"
      ],
      [
        "Ġcl",
        "ass"
      ],
      [
        "in",
        "ed"
      ],
      [
        "ĠOct",
        "ober"
      ],
      [
        "Ġhe",
        "ad"
      ],
      [
        "iv",
        "es"
      ],
      [
        "Ġp",
        "rom"
      ],
      [
        "Ġcons",
        "id"
      ],
      [
        "en",
        "e"
      ],
      [
        "ant",
        "s"
      ],
      [
        "r",
        "ad"
      ],
      [
        "l",
        "ing"
      ],
      [
        "il",
        "ity"
      ],
      [
        "ical",
        "ly"
      ],
      [
        "ĠD",
        "ec"
      ],
      [
        "ĠP",
        "ro"
      ],
      [
        "Ġ19",
        "1"
      ],
      [
        "Ġe",
        "ver"
      ],
      [
        "Ġst",
        "ate"
      ],
      [
        "Ġbu",
        "ild"
      ],
      [
        "re",
        "t"
      ],
      [
        "Ġe",
        "ach"
      ],
      [
        "an",
        "u"
      ],
      [
        "Ġex",
        "t"
      ],
      [
        "Ġf",
        "ive"
      ],
      [
        "r",
        "ist"
      ],
      [
        "Ġa",
        "ut"
      ],
      [
        "ro",
        "l"
      ],
      [
        "ĠY",
        "ork"
      ],
      [
        "Ġcent",
        "ury"
      ],
      [
        "in",
        "a"
      ],
      [
        "Ġv",
        "ar"
      ],
      [
        "Ġb",
        "o"
      ],
      [
        "Ġw",
        "ill"
      ],
      [
        "Ġare",
        "a"
      ],
      [
        "ĠThe",
        "y"
      ],
      [
        "at",
        "ely"
      ],
      [
        "Ġsm",
        "all"
      ],
      [
        "g",
        "et"
      ],
      [
        "os",
        "s"
      ],
      [
        "Ġpart",
        "ic"
      ],
      [
        "Ġl",
        "ife"
      ],
      [
        "ĠN",
        "orth"
      ],
      [
        "iv",
        "ing"
      ],
      [
        "r",
        "il"
      ],
      [
        "Ġre",
        "port"
      ],
      [
        "Ġ",
        "]"
      ],
      [
        "ĠM",
        "e"
      ],
      [
        "Ġ",
        "["
      ],
      [
        "t",
        "le"
      ],
      [
        "ore",
        "d"
      ],
      [
        "ĠB",
        "y"
      ],
      [
        "ĠJ",
        "une"
      ],
      [
        "ian",
        "s"
      ],
      [
        "ord",
        "ing"
      ],
      [
        "Ġc",
        "ity"
      ],
      [
        "g",
        "in"
      ],
      [
        "Ġm",
        "ar"
      ],
      [
        "p",
        "ed"
      ],
      [
        "ĠK",
        "ing"
      ],
      [
        "Ġm",
        "ajor"
      ],
      [
        "Ġwe",
        "ek"
      ],
      [
        "Ġpubl",
        "ic"
      ],
      [
        "ĠJu",
        "ly"
      ],
      [
        "Ġ",
        "%"
      ],
      [
        "iss",
        "ion"
      ],
      [
        "Ġcon",
        "f"
      ],
      [
        "ĠH",
        "ar"
      ],
      [
        "Ġb",
        "and"
      ],
      [
        "ect",
        "ion"
      ],
      [
        "Ġre",
        "f"
      ],
      [
        "m",
        "ed"
      ],
      [
        "ĠNov",
        "ember"
      ],
      [
        "in",
        "c"
      ],
      [
        "ur",
        "ch"
      ],
      [
        "Ġre",
        "st"
      ],
      [
        "ĠCom",
        "m"
      ],
      [
        "ĠW",
        "ill"
      ],
      [
        "Ġw",
        "orld"
      ],
      [
        "ĠP",
        "h"
      ],
      [
        "Ġm",
        "ed"
      ],
      [
        "Ġs",
        "ince"
      ],
      [
        "es",
        "p"
      ],
      [
        "Ġsing",
        "le"
      ],
      [
        "ra",
        "ft"
      ],
      [
        "ra",
        "ph"
      ],
      [
        "p",
        "or"
      ],
      [
        "ĠAp",
        "ril"
      ],
      [
        "b",
        "le"
      ],
      [
        "ĠM",
        "c"
      ],
      [
        "ain",
        "s"
      ],
      [
        "ri",
        "ed"
      ],
      [
        "l",
        "ish"
      ],
      [
        "Ġd",
        "et"
      ],
      [
        "ĠMar",
        "ch"
      ],
      [
        "om",
        "et"
      ],
      [
        "Ġj",
        "ust"
      ],
      [
        "Ġl",
        "ast"
      ],
      [
        "ect",
        "ed"
      ],
      [
        "ur",
        "al"
      ],
      [
        "ion",
        "al"
      ],
      [
        "he",
        "st"
      ],
      [
        "ĠE",
        "d"
      ],
      [
        "a",
        "im"
      ],
      [
        "Ġt",
        "urn"
      ],
      [
        "iv",
        "ely"
      ],
      [
        "Ġhe",
        "l"
      ],
      [
        "il",
        "t"
      ],
      [
        "Ġal",
        "low"
      ],
      [
        "Ġp",
        "o"
      ],
      [
        "ĠC",
        "an"
      ],
      [
        "Ġ3",
        "0"
      ],
      [
        "c",
        "l"
      ],
      [
        "i",
        "ent"
      ],
      [
        "vi",
        "ous"
      ],
      [
        "ĠG",
        "e"
      ],
      [
        "Ġle",
        "ft"
      ],
      [
        "Ġlar",
        "ge"
      ],
      [
        "Ġl",
        "ine"
      ],
      [
        "at",
        "s"
      ],
      [
        "Ġdif",
        "fer"
      ],
      [
        "al",
        "es"
      ],
      [
        "ĠS",
        "outh"
      ],
      [
        "Ġc",
        "are"
      ],
      [
        "Ġs",
        "outh"
      ],
      [
        "Ġad",
        "v"
      ],
      [
        "ĠD",
        "uring"
      ],
      [
        "if",
        "ied"
      ],
      [
        "Ġd",
        "r"
      ],
      [
        "Ġst",
        "r"
      ],
      [
        "Ġb",
        "ook"
      ],
      [
        "Ġver",
        "s"
      ],
      [
        "em",
        "pt"
      ],
      [
        "Ġs",
        "chool"
      ],
      [
        "Ġs",
        "l"
      ],
      [
        "ag",
        "ue"
      ],
      [
        "ĠDec",
        "ember"
      ],
      [
        "Ġth",
        "ird"
      ],
      [
        "av",
        "y"
      ],
      [
        "Ġinc",
        "re"
      ],
      [
        "Ġ2",
        "5"
      ],
      [
        "Ġmon",
        "th"
      ],
      [
        "Ġd",
        "ue"
      ],
      [
        "Ġapp",
        "ro"
      ],
      [
        ".",
        "."
      ],
      [
        "Ġplay",
        "ed"
      ],
      [
        "Ġm",
        "uch"
      ],
      [
        "Ġev",
        "ent"
      ],
      [
        "ro",
        "w"
      ],
      [
        "ĠP",
        "r"
      ],
      [
        "Ġ",
        "if"
      ],
      [
        "ro",
        "te"
      ],
      [
        "Ġan",
        "other"
      ],
      [
        "ĠJ",
        "anu"
      ],
      [
        "Ġ19",
        "2"
      ],
      [
        "ĠJanu",
        "ary"
      ],
      [
        "Ġinclud",
        "ed"
      ],
      [
        "Ġwh",
        "at"
      ],
      [
        "Ġpl",
        "ace"
      ],
      [
        "Ġb",
        "ased"
      ],
      [
        "Ġsh",
        "ort"
      ],
      [
        "n",
        "e"
      ],
      [
        "ĠI",
        "I"
      ],
      [
        "on",
        "y"
      ],
      [
        "Ġex",
        "pl"
      ],
      [
        "Ġgovern",
        "ment"
      ],
      [
        "Ġp",
        "erson"
      ],
      [
        "b",
        "all"
      ],
      [
        "Ġw",
        "rote"
      ],
      [
        "ĠW",
        "hen"
      ],
      [
        "Ġtr",
        "ack"
      ],
      [
        "ap",
        "an"
      ],
      [
        "Ġc",
        "amp"
      ],
      [
        "Ġt",
        "it"
      ],
      [
        "Ġo",
        "ld"
      ],
      [
        "ĠE",
        "u"
      ],
      [
        "Ġb",
        "re"
      ],
      [
        "al",
        "f"
      ],
      [
        "Ġn",
        "ame"
      ],
      [
        "Ġde",
        "ath"
      ],
      [
        "Ġp",
        "ort"
      ],
      [
        "Ġe",
        "lect"
      ],
      [
        "ent",
        "ly"
      ],
      [
        "Ġ.",
        ".."
      ],
      [
        "p",
        "le"
      ],
      [
        "ren",
        "t"
      ],
      [
        "ĠJ",
        "apan"
      ],
      [
        "i",
        "ence"
      ],
      [
        "Ġen",
        "g"
      ],
      [
        "Ġw",
        "on"
      ],
      [
        "b",
        "y"
      ],
      [
        "ĠO",
        "r"
      ],
      [
        "Ġch",
        "ild"
      ],
      [
        "Ġpro",
        "t"
      ],
      [
        "Ġl",
        "it"
      ],
      [
        "Ġk",
        "ill"
      ],
      [
        "Ġpro",
        "g"
      ],
      [
        "o",
        "ad"
      ],
      [
        "Ġst",
        "ory"
      ],
      [
        "ide",
        "o"
      ],
      [
        "ag",
        "es"
      ],
      [
        "Ġp",
        "ower"
      ],
      [
        "ĠB",
        "ro"
      ],
      [
        "Ġre",
        "view"
      ],
      [
        "ĠT",
        "e"
      ],
      [
        "od",
        "y"
      ],
      [
        "Ġv",
        "is"
      ],
      [
        "it",
        "al"
      ],
      [
        "Ġh",
        "ome"
      ],
      [
        "ot",
        "t"
      ],
      [
        "Ġl",
        "ed"
      ],
      [
        "p",
        "s"
      ],
      [
        "Ġdescrib",
        "ed"
      ],
      [
        "en",
        "g"
      ],
      [
        "Ġre",
        "qu"
      ],
      [
        "om",
        "an"
      ],
      [
        "Ġpre",
        "vious"
      ],
      [
        "Ġfam",
        "ily"
      ],
      [
        "Ġg",
        "un"
      ],
      [
        "ra",
        "nd"
      ],
      [
        "t",
        "ain"
      ],
      [
        "Ġw",
        "ay"
      ],
      [
        "y",
        "l"
      ],
      [
        "Ġn",
        "amed"
      ],
      [
        "Ġr",
        "ight"
      ],
      [
        "Ġn",
        "ow"
      ],
      [
        "ĠM",
        "us"
      ],
      [
        "Ġd",
        "em"
      ],
      [
        "ur",
        "ther"
      ],
      [
        "i",
        "od"
      ],
      [
        "iv",
        "en"
      ],
      [
        "Ġm",
        "en"
      ],
      [
        "il",
        "ar"
      ],
      [
        "Ġev",
        "en"
      ],
      [
        "Ġm",
        "ake"
      ],
      [
        "emb",
        "ers"
      ],
      [
        "Ġor",
        "gan"
      ],
      [
        "ĠG",
        "u"
      ],
      [
        "re",
        "en"
      ],
      [
        "is",
        "ter"
      ],
      [
        "on",
        "t"
      ],
      [
        "c",
        "y"
      ],
      [
        "ivers",
        "ity"
      ],
      [
        "om",
        "in"
      ],
      [
        "Ġatt",
        "empt"
      ],
      [
        "Ġb",
        "est"
      ],
      [
        "it",
        "ions"
      ],
      [
        "Ġ1",
        "00"
      ],
      [
        "Ġc",
        "our"
      ],
      [
        "Ġ",
        "Â"
      ],
      [
        "Ġre",
        "pl"
      ],
      [
        "iv",
        "ision"
      ],
      [
        "Ġo",
        "pp"
      ],
      [
        "Ġle",
        "g"
      ],
      [
        "ren",
        "ch"
      ],
      [
        "Ġg",
        "ames"
      ],
      [
        "i",
        "or"
      ],
      [
        "ac",
        "hed"
      ],
      [
        "Ġt",
        "erm"
      ],
      [
        "ĠA",
        "nd"
      ],
      [
        "Ġcomm",
        "and"
      ],
      [
        "iv",
        "al"
      ],
      [
        "Ġh",
        "and"
      ],
      [
        "ĠF",
        "l"
      ],
      [
        "Ġpos",
        "s"
      ],
      [
        "m",
        "p"
      ],
      [
        "Ġbel",
        "ie"
      ],
      [
        "Ġd",
        "am"
      ],
      [
        "Ġver",
        "y"
      ],
      [
        "o",
        "x"
      ],
      [
        "ĠH",
        "is"
      ],
      [
        "Ġth",
        "ose"
      ],
      [
        "ĠF",
        "eb"
      ],
      [
        "ĠEu",
        "rop"
      ],
      [
        "Ġp",
        "ar"
      ],
      [
        "ĠFeb",
        "ru"
      ],
      [
        "ĠFebru",
        "ary"
      ],
      [
        "s",
        "h"
      ],
      [
        "Ġis",
        "s"
      ],
      [
        "Ġst",
        "ill"
      ],
      [
        "Ġto",
        "p"
      ],
      [
        "Ġne",
        "xt"
      ],
      [
        "Ġspec",
        "ies"
      ],
      [
        "ĠCh",
        "rist"
      ],
      [
        "Ġeff",
        "ect"
      ],
      [
        "ri",
        "end"
      ],
      [
        "Ġvi",
        "ew"
      ],
      [
        "c",
        "hed"
      ],
      [
        "ĠThe",
        "re"
      ],
      [
        "ĠN",
        "ational"
      ],
      [
        "oc",
        "i"
      ],
      [
        "Ġorig",
        "inal"
      ],
      [
        "ak",
        "en"
      ],
      [
        "ĠW",
        "e"
      ],
      [
        "at",
        "ure"
      ],
      [
        "en",
        "ces"
      ],
      [
        "Ġsp",
        "e"
      ],
      [
        "l",
        "u"
      ],
      [
        "Ġw",
        "ater"
      ],
      [
        "n",
        "ess"
      ],
      [
        "Ġadd",
        "ition"
      ],
      [
        "Ġj",
        "oin"
      ],
      [
        "ĠB",
        "ar"
      ],
      [
        "ĠEurop",
        "e"
      ],
      [
        "Ġl",
        "ist"
      ],
      [
        "a",
        "u"
      ],
      [
        "Ġper",
        "iod"
      ],
      [
        "Ġwith",
        "in"
      ],
      [
        "al",
        "k"
      ],
      [
        "Ġm",
        "embers"
      ],
      [
        "Ġm",
        "ark"
      ],
      [
        "et",
        "er"
      ],
      [
        "Ġde",
        "b"
      ],
      [
        "Ġhe",
        "ld"
      ],
      [
        "Ġbu",
        "ilt"
      ],
      [
        "ĠF",
        "rench"
      ],
      [
        "Ġex",
        "per"
      ],
      [
        "h",
        "or"
      ],
      [
        "a",
        "f"
      ],
      [
        "ĠA",
        "m"
      ],
      [
        "Ġ201",
        "0"
      ],
      [
        "Ġrele",
        "ase"
      ],
      [
        "ĠP",
        "ar"
      ],
      [
        "Ġl",
        "ate"
      ],
      [
        "Ġal",
        "though"
      ],
      [
        "Ġfor",
        "mer"
      ],
      [
        "re",
        "w"
      ],
      [
        "Ġmat",
        "ch"
      ],
      [
        "Ġg",
        "reat"
      ],
      [
        "a",
        "ugh"
      ],
      [
        "rid",
        "ge"
      ],
      [
        "n",
        "ey"
      ],
      [
        "Ġc",
        "ur"
      ],
      [
        "Ġd",
        "est"
      ],
      [
        "Ġs",
        "old"
      ],
      [
        "ut",
        "ed"
      ],
      [
        "tend",
        "ed"
      ],
      [
        "Ġv",
        "ideo"
      ],
      [
        "Ġ2",
        "1"
      ],
      [
        "ard",
        "s"
      ],
      [
        "Ġc",
        "aus"
      ],
      [
        "ĠW",
        "est"
      ],
      [
        "l",
        "ine"
      ],
      [
        "Ġst",
        "orm"
      ],
      [
        "Ġc",
        "over"
      ],
      [
        "Ġ",
        "X"
      ],
      [
        "v",
        "es"
      ],
      [
        "ec",
        "h"
      ],
      [
        "Ġin",
        "it"
      ],
      [
        "Ġro",
        "le"
      ],
      [
        "rop",
        "ical"
      ],
      [
        "Ġt",
        "ri"
      ],
      [
        "ĠWill",
        "iam"
      ],
      [
        "s",
        "elf"
      ],
      [
        "Ġc",
        "ame"
      ],
      [
        "Ġest",
        "ab"
      ],
      [
        "he",
        "l"
      ],
      [
        "ĠH",
        "er"
      ],
      [
        "Ġday",
        "s"
      ],
      [
        "an",
        "ces"
      ],
      [
        "Ġres",
        "ult"
      ],
      [
        "Ġm",
        "id"
      ],
      [
        "Ġpres",
        "ent"
      ],
      [
        "n",
        "a"
      ],
      [
        "le",
        "v"
      ],
      [
        "Ġcont",
        "rol"
      ],
      [
        "ag",
        "ed"
      ],
      [
        "pt",
        "ion"
      ],
      [
        "o",
        "on"
      ],
      [
        "ul",
        "ation"
      ],
      [
        "Ġst",
        "and"
      ],
      [
        "Ġre",
        "al"
      ],
      [
        "Ġpol",
        "it"
      ],
      [
        "Ġh",
        "owever"
      ],
      [
        "ĠM",
        "in"
      ],
      [
        "it",
        "ary"
      ],
      [
        "as",
        "ter"
      ],
      [
        "h",
        "am"
      ],
      [
        "Ġ200",
        "8"
      ],
      [
        "Ġpro",
        "p"
      ],
      [
        "le",
        "t"
      ],
      [
        "en",
        "se"
      ],
      [
        "Ġ200",
        "9"
      ],
      [
        "ĠM",
        "an"
      ],
      [
        "at",
        "ic"
      ],
      [
        "id",
        "es"
      ],
      [
        "Ġf",
        "ew"
      ],
      [
        "Ġto",
        "wn"
      ],
      [
        "Ġ2",
        "4"
      ],
      [
        "Ġw",
        "ind"
      ],
      [
        "ĠGe",
        "or"
      ],
      [
        "om",
        "b"
      ],
      [
        "Ġy",
        "ou"
      ],
      [
        "og",
        "raph"
      ],
      [
        "Ġt",
        "w"
      ],
      [
        "Ġs",
        "ide"
      ],
      [
        "Ġs",
        "k"
      ],
      [
        "Ġcontin",
        "ued"
      ],
      [
        "Ġof",
        "ten"
      ],
      [
        "Ġe",
        "qu"
      ],
      [
        "Ġp",
        "ost"
      ],
      [
        "ĠE",
        "ar"
      ],
      [
        "ay",
        "s"
      ],
      [
        "Ġloc",
        "al"
      ],
      [
        "Ġ201",
        "1"
      ],
      [
        "el",
        "t"
      ],
      [
        "ĠCh",
        "ar"
      ],
      [
        "at",
        "or"
      ],
      [
        "Ġam",
        "ong"
      ],
      [
        "ĠA",
        "ir"
      ],
      [
        "Ġsim",
        "ilar"
      ],
      [
        "ru",
        "ction"
      ],
      [
        "e",
        "ad"
      ],
      [
        "c",
        "hes"
      ],
      [
        "ĠM",
        "ich"
      ],
      [
        "r",
        "act"
      ],
      [
        "Ġh",
        "um"
      ],
      [
        "Ġa",
        "v"
      ],
      [
        "Ġcl",
        "aim"
      ],
      [
        "es",
        "tern"
      ],
      [
        "ĠN",
        "o"
      ],
      [
        "om",
        "en"
      ],
      [
        "un",
        "g"
      ],
      [
        "Ġ",
        "&"
      ],
      [
        "ĠEng",
        "land"
      ],
      [
        "re",
        "et"
      ],
      [
        "re",
        "ad"
      ],
      [
        "ak",
        "es"
      ],
      [
        "Ġdiffer",
        "ent"
      ],
      [
        "s",
        "ide"
      ],
      [
        "es",
        "e"
      ],
      [
        "op",
        "s"
      ],
      [
        "Ġm",
        "y"
      ],
      [
        "Ġd",
        "el"
      ],
      [
        "l",
        "er"
      ],
      [
        "Ġbe",
        "h"
      ],
      [
        "ĠR",
        "ec"
      ],
      [
        "olog",
        "y"
      ],
      [
        "p",
        "ar"
      ],
      [
        "Ġt",
        "yp"
      ],
      [
        "Ġ2",
        "2"
      ],
      [
        "Ġf",
        "urther"
      ],
      [
        "Ġs",
        "ent"
      ],
      [
        "es",
        "c"
      ],
      [
        "ĠD",
        "av"
      ],
      [
        "ot",
        "s"
      ],
      [
        "est",
        "ed"
      ],
      [
        "Ġle",
        "vel"
      ],
      [
        "ur",
        "s"
      ],
      [
        "Ġf",
        "re"
      ],
      [
        "Ġconsid",
        "ered"
      ],
      [
        "Ġt",
        "ake"
      ],
      [
        "Ġl",
        "aw"
      ],
      [
        "er",
        "y"
      ],
      [
        "ĠE",
        "l"
      ],
      [
        "Ġto",
        "t"
      ],
      [
        "Ġ200",
        "7"
      ],
      [
        "g",
        "y"
      ],
      [
        "Ġcare",
        "er"
      ],
      [
        "ĠOn",
        "e"
      ],
      [
        "ron",
        "t"
      ],
      [
        "Ġprodu",
        "ction"
      ],
      [
        "ar",
        "m"
      ],
      [
        "m",
        "e"
      ],
      [
        "Ġh",
        "alf"
      ],
      [
        "ic",
        "es"
      ],
      [
        "ĠP",
        "ark"
      ],
      [
        "ĠC",
        "o"
      ],
      [
        "Ġan",
        "t"
      ],
      [
        "ĠC",
        "ity"
      ],
      [
        "Ġh",
        "aving"
      ],
      [
        "amp",
        "ions"
      ],
      [
        "b",
        "o"
      ],
      [
        "ĠA",
        "cc"
      ],
      [
        "ĠEng",
        "lish"
      ],
      [
        "Ġm",
        "ag"
      ],
      [
        "Ġro",
        "ad"
      ],
      [
        "Ġe",
        "ast"
      ],
      [
        "Ġmov",
        "ed"
      ],
      [
        "Ġd",
        "ra"
      ],
      [
        "er",
        "ing"
      ],
      [
        "Ġever",
        "y"
      ],
      [
        "Ġw",
        "est"
      ],
      [
        "Ġwith",
        "out"
      ],
      [
        "ĠAl",
        "though"
      ],
      [
        "ro",
        "du"
      ],
      [
        "Ġc",
        "r"
      ],
      [
        "ĠC",
        "ent"
      ],
      [
        "Ġapp",
        "e"
      ],
      [
        "Ġpl",
        "an"
      ],
      [
        "Ġplay",
        "er"
      ],
      [
        "Ġ201",
        "2"
      ],
      [
        "in",
        "ing"
      ],
      [
        "Ġpos",
        "ition"
      ],
      [
        "Ġc",
        "or"
      ],
      [
        "Ġbec",
        "ome"
      ],
      [
        "Ġar",
        "r"
      ],
      [
        "Ġhist",
        "ory"
      ],
      [
        "Ġvers",
        "ion"
      ],
      [
        "ver",
        "s"
      ],
      [
        "Ġt",
        "ro"
      ],
      [
        "ĠC",
        "al"
      ],
      [
        "f",
        "ord"
      ],
      [
        "ĠAn",
        "g"
      ],
      [
        "ond",
        "on"
      ],
      [
        "on",
        "es"
      ],
      [
        "Ġc",
        "ast"
      ],
      [
        "ĠC",
        "ount"
      ],
      [
        "Ġ",
        "el"
      ],
      [
        "Ġinf",
        "lu"
      ],
      [
        "iz",
        "e"
      ],
      [
        "Ġar",
        "m"
      ],
      [
        "Ġ2",
        "3"
      ],
      [
        "ĠL",
        "ondon"
      ],
      [
        "Ġh",
        "ouse"
      ],
      [
        "y",
        "le"
      ],
      [
        "Ġs",
        "ound"
      ],
      [
        "r",
        "ig"
      ],
      [
        "Ġf",
        "ore"
      ],
      [
        "Ġcomm",
        "un"
      ],
      [
        "res",
        "ent"
      ],
      [
        "ir",
        "c"
      ],
      [
        "ap",
        "p"
      ],
      [
        "ĠB",
        "att"
      ],
      [
        "Ġg",
        "r"
      ],
      [
        "Ġcl",
        "ub"
      ],
      [
        "Ġsu",
        "gg"
      ],
      [
        "ro",
        "y"
      ],
      [
        "a",
        "ul"
      ],
      [
        "at",
        "ter"
      ],
      [
        "Ġstr",
        "ong"
      ],
      [
        "Ġinv",
        "ol"
      ],
      [
        "a",
        "i"
      ],
      [
        "Ġwrit",
        "ten"
      ],
      [
        "Ġ19",
        "0"
      ],
      [
        "ain",
        "ing"
      ],
      [
        "ĠW",
        "ith"
      ],
      [
        "Ġb",
        "as"
      ],
      [
        "Ġst",
        "at"
      ],
      [
        "Ġl",
        "ess"
      ],
      [
        "oun",
        "g"
      ],
      [
        "ut",
        "es"
      ],
      [
        "Ġann",
        "oun"
      ],
      [
        "re",
        "st"
      ],
      [
        "Ġf",
        "oot"
      ],
      [
        "ĠR",
        "iver"
      ],
      [
        "i",
        "qu"
      ],
      [
        "al",
        "d"
      ],
      [
        "Ġor",
        "der"
      ],
      [
        "Ġre",
        "fer"
      ],
      [
        "iet",
        "y"
      ],
      [
        "im",
        "ent"
      ],
      [
        "g",
        "es"
      ],
      [
        "Ġpro",
        "f"
      ],
      [
        "c",
        "raft"
      ],
      [
        "ĠCan",
        "ad"
      ],
      [
        "a",
        "e"
      ],
      [
        "Ġa",
        "ff"
      ],
      [
        "Ġpoin",
        "t"
      ],
      [
        "se",
        "qu"
      ],
      [
        "Ġt",
        "em"
      ],
      [
        "Ġg",
        "iven"
      ],
      [
        "Ġr",
        "ad"
      ],
      [
        "Ġl",
        "ow"
      ],
      [
        "Ġtr",
        "ad"
      ],
      [
        "Ġh",
        "ig"
      ],
      [
        "Ġw",
        "ant"
      ],
      [
        "ĠG",
        "ener"
      ],
      [
        "ĠUn",
        "iversity"
      ],
      [
        "il",
        "le"
      ],
      [
        "Ġk",
        "e"
      ],
      [
        "Ġg",
        "ave"
      ],
      [
        "Ġp",
        "at"
      ],
      [
        "u",
        "ck"
      ],
      [
        "is",
        "c"
      ],
      [
        "Ġim",
        "port"
      ],
      [
        "ĠP",
        "ol"
      ],
      [
        "Ġne",
        "ver"
      ],
      [
        "a",
        "ff"
      ],
      [
        "ĠWh",
        "ile"
      ],
      [
        "Ġch",
        "ang"
      ],
      [
        "Ġdef",
        "e"
      ],
      [
        "or",
        "ies"
      ],
      [
        "Ġs",
        "oc"
      ],
      [
        "Ġreturn",
        "ed"
      ],
      [
        "r",
        "ation"
      ],
      [
        "ĠA",
        "b"
      ],
      [
        "Ġv",
        "ict"
      ],
      [
        "Ġtot",
        "al"
      ],
      [
        "Ġf",
        "act"
      ],
      [
        "ĠH",
        "igh"
      ],
      [
        "Ġg",
        "ood"
      ],
      [
        "ent",
        "ion"
      ],
      [
        "ĠT",
        "r"
      ],
      [
        "Ġcomp",
        "any"
      ],
      [
        "Ġf",
        "ire"
      ],
      [
        "s",
        "p"
      ],
      [
        "ail",
        "ed"
      ],
      [
        "Ġcount",
        "ry"
      ],
      [
        "Ġw",
        "ent"
      ],
      [
        "is",
        "on"
      ],
      [
        "Ġcom",
        "b"
      ],
      [
        "c",
        "ess"
      ],
      [
        "Ġf",
        "riend"
      ],
      [
        "our",
        "s"
      ],
      [
        "ric",
        "k"
      ],
      [
        "ĠE",
        "x"
      ],
      [
        "Ġcap",
        "t"
      ],
      [
        "Ġpubl",
        "ished"
      ],
      [
        "a",
        "un"
      ],
      [
        "Ġprodu",
        "ced"
      ],
      [
        "lev",
        "ision"
      ],
      [
        "Ġf",
        "ind"
      ],
      [
        "ay",
        "ing"
      ],
      [
        "c",
        "on"
      ],
      [
        "Ġreport",
        "ed"
      ],
      [
        "Ġorig",
        "in"
      ],
      [
        "ĠS",
        "m"
      ],
      [
        "Ġ200",
        "6"
      ],
      [
        "a",
        "ign"
      ],
      [
        "Ġl",
        "ost"
      ],
      [
        "Ġst",
        "ated"
      ],
      [
        "Ġcomm",
        "on"
      ],
      [
        "Ġprog",
        "ram"
      ],
      [
        "ing",
        "ton"
      ],
      [
        "Ġl",
        "ight"
      ],
      [
        "y",
        "n"
      ],
      [
        "Ġpartic",
        "ular"
      ],
      [
        "ap",
        "e"
      ],
      [
        "Ġor",
        "d"
      ],
      [
        "ec",
        "hn"
      ],
      [
        "Ġad",
        "m"
      ],
      [
        "Ġinclud",
        "e"
      ],
      [
        "est",
        "s"
      ],
      [
        "ĠAcc",
        "ording"
      ],
      [
        "Ġlar",
        "g"
      ],
      [
        "ab",
        "ly"
      ],
      [
        "ur",
        "ric"
      ],
      [
        "Ġcomp",
        "et"
      ],
      [
        "Ġ",
        "er"
      ],
      [
        "us",
        "ed"
      ],
      [
        "Ġrecord",
        "ed"
      ],
      [
        "ie",
        "f"
      ],
      [
        "Ġbuild",
        "ing"
      ],
      [
        "Ġp",
        "ress"
      ],
      [
        "ĠSt",
        "e"
      ],
      [
        "Ġne",
        "ed"
      ],
      [
        "ĠN",
        "e"
      ],
      [
        "Ġb",
        "us"
      ],
      [
        "Ġpro",
        "ject"
      ],
      [
        "h",
        "ing"
      ],
      [
        "Ġfor",
        "ces"
      ],
      [
        "um",
        "ent"
      ],
      [
        "Ġn",
        "ort"
      ],
      [
        "Ġ2",
        "7"
      ],
      [
        "Ġship",
        "s"
      ],
      [
        "Ġsh",
        "ould"
      ],
      [
        "Ġus",
        "ing"
      ],
      [
        "Ġe",
        "ight"
      ],
      [
        "Ġ5",
        "0"
      ],
      [
        "Ġ2",
        "8"
      ],
      [
        "Ġperform",
        "ance"
      ],
      [
        "in",
        "ess"
      ],
      [
        "ĠS",
        "w"
      ],
      [
        "Ġserv",
        "ice"
      ],
      [
        "b",
        "s"
      ],
      [
        "Ġpop",
        "ular"
      ],
      [
        "Ġ",
        "ide"
      ],
      [
        "pl",
        "oy"
      ],
      [
        "ĠThe",
        "se"
      ],
      [
        "Ġt",
        "imes"
      ],
      [
        "os",
        "p"
      ],
      [
        "Ġm",
        "aking"
      ],
      [
        "Ġt",
        "en"
      ],
      [
        "Ġair",
        "craft"
      ],
      [
        "Ġhim",
        "self"
      ],
      [
        "oy",
        "al"
      ],
      [
        "Ġf",
        "un"
      ],
      [
        "Ġaut",
        "hor"
      ],
      [
        "Ġ201",
        "3"
      ],
      [
        "Ġf",
        "ather"
      ],
      [
        "at",
        "ch"
      ],
      [
        "Ġmil",
        "itary"
      ],
      [
        "ĠAustral",
        "ia"
      ],
      [
        "ĠS",
        "ec"
      ],
      [
        "Ġan",
        "im"
      ],
      [
        "le",
        "ar"
      ],
      [
        "Ġbatt",
        "le"
      ],
      [
        "ampions",
        "hip"
      ],
      [
        "n",
        "ed"
      ],
      [
        "ĠJ",
        "ack"
      ],
      [
        "ĠAs",
        "s"
      ],
      [
        "Ġs",
        "it"
      ],
      [
        "Ġl",
        "im"
      ],
      [
        "Ġsong",
        "s"
      ],
      [
        "Ġs",
        "omet"
      ],
      [
        "Ġre",
        "ad"
      ],
      [
        "ĠA",
        "f"
      ],
      [
        "ou",
        "ther"
      ],
      [
        "Ġcrit",
        "ic"
      ],
      [
        "ens",
        "ive"
      ],
      [
        "it",
        "her"
      ],
      [
        "ord",
        "s"
      ],
      [
        "Ġdevelop",
        "ment"
      ],
      [
        "Ġs",
        "w"
      ],
      [
        "Ġh",
        "ow"
      ],
      [
        "Ġg",
        "l"
      ],
      [
        "Ġ4",
        "0"
      ],
      [
        "ĠGener",
        "al"
      ],
      [
        "al",
        "th"
      ],
      [
        "et",
        "h"
      ],
      [
        "Ġs",
        "ol"
      ],
      [
        "it",
        "ive"
      ],
      [
        "ed",
        "er"
      ],
      [
        "as",
        "es"
      ],
      [
        "qu",
        "ad"
      ],
      [
        "Ġ2",
        "6"
      ],
      [
        "ĠSt",
        "ate"
      ],
      [
        "ol",
        "l"
      ],
      [
        "ĠC",
        "or"
      ],
      [
        "outher",
        "n"
      ],
      [
        "ĠJ",
        "ames"
      ],
      [
        "Ġc",
        "ross"
      ],
      [
        "c",
        "er"
      ],
      [
        "Ġ18",
        "9"
      ],
      [
        "am",
        "b"
      ],
      [
        "Ġrep",
        "resent"
      ],
      [
        "ĠS",
        "y"
      ],
      [
        "Ġg",
        "round"
      ],
      [
        "Ġdest",
        "roy"
      ],
      [
        "ac",
        "y"
      ],
      [
        "Ġst",
        "ar"
      ],
      [
        "Ġf",
        "t"
      ],
      [
        "Ġrem",
        "ained"
      ],
      [
        "as",
        "tern"
      ],
      [
        "Ġst",
        "e"
      ],
      [
        "k",
        "s"
      ],
      [
        "ri",
        "e"
      ],
      [
        "Ġcharac",
        "ters"
      ],
      [
        "ĠAr",
        "my"
      ],
      [
        "Ġn",
        "ational"
      ],
      [
        "ĠP",
        "res"
      ],
      [
        "Ġg",
        "et"
      ],
      [
        "ri",
        "es"
      ],
      [
        "w",
        "ork"
      ],
      [
        "Ġmonth",
        "s"
      ],
      [
        "Ġsu",
        "ff"
      ],
      [
        "Ġg",
        "en"
      ],
      [
        "ĠB",
        "o"
      ],
      [
        "Ġd",
        "ied"
      ],
      [
        "a",
        "ur"
      ],
      [
        "Ġt",
        "er"
      ],
      [
        "ĠG",
        "l"
      ],
      [
        "ĠCom",
        "p"
      ],
      [
        "ubl",
        "ic"
      ],
      [
        "Ġdevelop",
        "ed"
      ],
      [
        "Ġtit",
        "le"
      ],
      [
        "d",
        "om"
      ],
      [
        "Ġs",
        "um"
      ],
      [
        "Ġch",
        "art"
      ],
      [
        "f",
        "ic"
      ],
      [
        "Ġcamp",
        "aign"
      ],
      [
        "re",
        "am"
      ],
      [
        "urric",
        "ane"
      ],
      [
        "Ġfor",
        "ce"
      ],
      [
        "ĠLe",
        "ague"
      ],
      [
        "Ġchild",
        "ren"
      ],
      [
        "Ġint",
        "rodu"
      ],
      [
        "land",
        "s"
      ],
      [
        "en",
        "cy"
      ],
      [
        "Ġp",
        "ra"
      ],
      [
        "Ġto",
        "ur"
      ],
      [
        "Ġprom",
        "ot"
      ],
      [
        "it",
        "ted"
      ],
      [
        "ist",
        "ed"
      ],
      [
        "a",
        "el"
      ],
      [
        "Ġs",
        "on"
      ],
      [
        "Ġsign",
        "ific"
      ],
      [
        "Ġre",
        "d"
      ],
      [
        "Ġac",
        "ross"
      ],
      [
        "Ġa",
        "way"
      ],
      [
        "ress",
        "ion"
      ],
      [
        "her",
        "n"
      ],
      [
        "Ġrel",
        "ations"
      ],
      [
        "Ġob",
        "s"
      ],
      [
        "Ġhist",
        "or"
      ],
      [
        "Ġf",
        "ield"
      ],
      [
        "Ġoffic",
        "ial"
      ],
      [
        "ĠD",
        "ivision"
      ],
      [
        "Ġf",
        "av"
      ],
      [
        "Ġf",
        "elt"
      ],
      [
        "o",
        "le"
      ],
      [
        "le",
        "ge"
      ],
      [
        "ĠAmeric",
        "a"
      ],
      [
        "Ġnot",
        "ed"
      ],
      [
        "Ġf",
        "ac"
      ],
      [
        "ĠS",
        "im"
      ],
      [
        "Ġn",
        "ight"
      ],
      [
        "al",
        "t"
      ],
      [
        "Ġannoun",
        "ced"
      ],
      [
        "m",
        "ost"
      ],
      [
        "Ġre",
        "ached"
      ],
      [
        "ĠR",
        "uss"
      ],
      [
        "Ġinter",
        "n"
      ],
      [
        "ĠS",
        "up"
      ],
      [
        "Ġcre",
        "ated"
      ],
      [
        "ĠCount",
        "y"
      ],
      [
        "Ġare",
        "as"
      ],
      [
        "c",
        "om"
      ],
      [
        "ĠR",
        "ep"
      ],
      [
        "ĠM",
        "on"
      ],
      [
        "Ġte",
        "levision"
      ],
      [
        "Ġc",
        "oun"
      ],
      [
        "Ġ200",
        "5"
      ],
      [
        "ĠR",
        "oad"
      ],
      [
        "ĠJapan",
        "ese"
      ],
      [
        "Ġst",
        "ation"
      ],
      [
        "he",
        "m"
      ],
      [
        "ress",
        "ed"
      ],
      [
        "Ġsuccess",
        "ful"
      ],
      [
        "ĠM",
        "ad"
      ],
      [
        "Ġro",
        "ck"
      ],
      [
        "im",
        "ately"
      ],
      [
        "Ġv",
        "al"
      ],
      [
        "ĠG",
        "r"
      ],
      [
        "ĠRe",
        "g"
      ],
      [
        "is",
        "ing"
      ],
      [
        "Ġvar",
        "ious"
      ],
      [
        "ĠâĢ",
        "Ļ"
      ],
      [
        "Ġb",
        "ar"
      ],
      [
        "ĠSt",
        "reet"
      ],
      [
        "Ġpolit",
        "ical"
      ],
      [
        "Ġse",
        "en"
      ],
      [
        "Ġfollow",
        "ed"
      ],
      [
        "Ġa",
        "ver"
      ],
      [
        "f",
        "ield"
      ],
      [
        "i",
        "ber"
      ],
      [
        "it",
        "ing"
      ],
      [
        "Ġto",
        "o"
      ],
      [
        "Ġ2",
        "9"
      ],
      [
        "Ġr",
        "ank"
      ],
      [
        "et",
        "t"
      ],
      [
        "ĠE",
        "ast"
      ],
      [
        "op",
        "e"
      ],
      [
        "Ġperform",
        "ed"
      ],
      [
        "c",
        "ast"
      ],
      [
        "ĠR",
        "ober"
      ],
      [
        "Ġc",
        "ult"
      ],
      [
        "iz",
        "ation"
      ],
      [
        "Ġser",
        "ved"
      ],
      [
        "Ġ201",
        "4"
      ],
      [
        "Ġplay",
        "ers"
      ],
      [
        "Ġf",
        "ront"
      ],
      [
        "re",
        "g"
      ],
      [
        "Ġre",
        "v"
      ],
      [
        "al",
        "ity"
      ],
      [
        "ĠGeor",
        "ge"
      ],
      [
        "Ġcon",
        "d"
      ],
      [
        "Ġf",
        "ull"
      ],
      [
        "Ġpr",
        "im"
      ],
      [
        "Ġdec",
        "l"
      ],
      [
        "Ġbl",
        "ack"
      ],
      [
        "in",
        "ation"
      ],
      [
        "ell",
        "ing"
      ],
      [
        "Ġbe",
        "gin"
      ],
      [
        "du",
        "ct"
      ],
      [
        "Ġf",
        "le"
      ],
      [
        "Ġp",
        "ut"
      ],
      [
        "ĠS",
        "er"
      ],
      [
        "Ġc",
        "irc"
      ],
      [
        "Ġcon",
        "v"
      ],
      [
        "Ġear",
        "l"
      ],
      [
        "ĠP",
        "er"
      ],
      [
        "ol",
        "ution"
      ],
      [
        "ĠT",
        "o"
      ],
      [
        "ĠH",
        "en"
      ],
      [
        "Ġc",
        "ost"
      ],
      [
        "ab",
        "or"
      ],
      [
        "id",
        "ence"
      ],
      [
        "Ġse",
        "e"
      ],
      [
        "Ġpro",
        "cess"
      ],
      [
        "Ġn",
        "on"
      ],
      [
        "Ġd",
        "iv"
      ],
      [
        "Ġst",
        "yle"
      ],
      [
        "y",
        "ing"
      ],
      [
        "Ġl",
        "ook"
      ],
      [
        "ĠPh",
        "il"
      ],
      [
        "Ġse",
        "ven"
      ],
      [
        "Ġv",
        "ol"
      ],
      [
        "Ġa",
        "ud"
      ],
      [
        "Ġkill",
        "ed"
      ],
      [
        "ĠE",
        "m"
      ],
      [
        "Ġc",
        "y"
      ],
      [
        "Ġhel",
        "p"
      ],
      [
        "ric",
        "t"
      ],
      [
        "Ġle",
        "t"
      ],
      [
        "l",
        "ished"
      ],
      [
        "pl",
        "ay"
      ],
      [
        "Ġthrough",
        "out"
      ],
      [
        "ĠB",
        "ill"
      ],
      [
        "Ġt",
        "aken"
      ],
      [
        "Ġt",
        "ropical"
      ],
      [
        "Ġab",
        "le"
      ],
      [
        "an",
        "a"
      ],
      [
        "Ġf",
        "ight"
      ],
      [
        "Ġdisc",
        "over"
      ],
      [
        "Ġag",
        "re"
      ],
      [
        "ec",
        "ut"
      ],
      [
        "ert",
        "ain"
      ],
      [
        "Ġlit",
        "tle"
      ],
      [
        "Ġw",
        "id"
      ],
      [
        "Ġbec",
        "om"
      ],
      [
        "Ġf",
        "em"
      ],
      [
        "Ġa",
        "ge"
      ],
      [
        "ur",
        "g"
      ],
      [
        "Ġsignific",
        "ant"
      ],
      [
        "ĠS",
        "ch"
      ],
      [
        "Ġh",
        "it"
      ],
      [
        "Ġme",
        "et"
      ],
      [
        "Ġ",
        "ident"
      ],
      [
        "ĠTh",
        "om"
      ],
      [
        "way",
        "s"
      ],
      [
        "ir",
        "l"
      ],
      [
        "Ġt",
        "echn"
      ],
      [
        "Ġspec",
        "ial"
      ],
      [
        "Ġc",
        "op"
      ],
      [
        "o",
        "ice"
      ],
      [
        "Ġwrit",
        "ing"
      ],
      [
        "Ġst",
        "ruct"
      ],
      [
        "ĠDav",
        "id"
      ],
      [
        "Ġthough",
        "t"
      ],
      [
        "Ġestab",
        "lished"
      ],
      [
        "ĠP",
        "art"
      ],
      [
        "Ġbro",
        "ad"
      ],
      [
        "ĠA",
        "ct"
      ],
      [
        "en",
        "ced"
      ],
      [
        "ĠM",
        "or"
      ],
      [
        "Ġm",
        "m"
      ],
      [
        "Ġappe",
        "ared"
      ],
      [
        "Ġdo",
        "es"
      ],
      [
        "Ġcol",
        "l"
      ],
      [
        "Ġent",
        "ire"
      ],
      [
        "ĠAustral",
        "ian"
      ],
      [
        "av",
        "al"
      ],
      [
        "c",
        "il"
      ],
      [
        "ep",
        "end"
      ],
      [
        "Ġy",
        "oung"
      ],
      [
        "Ġco",
        "ast"
      ],
      [
        "Ġpoin",
        "ts"
      ],
      [
        "Ġ",
        "!"
      ],
      [
        "Ġmil",
        "es"
      ],
      [
        "i",
        "us"
      ],
      [
        "Ġb",
        "ody"
      ],
      [
        "Ġa",
        "ward"
      ],
      [
        "l",
        "ess"
      ],
      [
        "Ġimp",
        "ro"
      ],
      [
        "ĠR",
        "ich"
      ],
      [
        "Ġro",
        "ute"
      ],
      [
        "Ġm",
        "ember"
      ],
      [
        "od",
        "es"
      ],
      [
        "ough",
        "t"
      ],
      [
        "ĠM",
        "ed"
      ],
      [
        "g",
        "round"
      ],
      [
        "ri",
        "pt"
      ],
      [
        "Ġw",
        "omen"
      ],
      [
        "Ġact",
        "iv"
      ],
      [
        "Ġr",
        "ange"
      ],
      [
        "st",
        "er"
      ],
      [
        "as",
        "k"
      ],
      [
        "ĠP",
        "e"
      ],
      [
        "iv",
        "il"
      ],
      [
        "ĠY",
        "ou"
      ],
      [
        "Ġcaus",
        "ed"
      ],
      [
        "Ġstart",
        "ed"
      ],
      [
        "Ġdec",
        "ided"
      ],
      [
        "i",
        "ers"
      ],
      [
        "ble",
        "m"
      ],
      [
        "Ġfeat",
        "ures"
      ],
      [
        "lect",
        "ed"
      ],
      [
        "d",
        "ay"
      ],
      [
        "ĠAf",
        "ric"
      ],
      [
        "Ġgener",
        "al"
      ],
      [
        "Ġp",
        "ain"
      ],
      [
        "ĠQ",
        "u"
      ],
      [
        "Ġevent",
        "ually"
      ],
      [
        "at",
        "ors"
      ],
      [
        "ir",
        "on"
      ],
      [
        "i",
        "ec"
      ],
      [
        "in",
        "t"
      ],
      [
        "um",
        "b"
      ],
      [
        "m",
        "en"
      ],
      [
        "con",
        "om"
      ],
      [
        "op",
        "h"
      ],
      [
        "og",
        "n"
      ],
      [
        "u",
        "k"
      ],
      [
        "d",
        "en"
      ],
      [
        "ĠR",
        "oyal"
      ],
      [
        "Ġr",
        "ace"
      ],
      [
        "Ġar",
        "ch"
      ],
      [
        "Ġv",
        "ot"
      ],
      [
        "he",
        "re"
      ],
      [
        "it",
        "ar"
      ],
      [
        "Ġgro",
        "w"
      ],
      [
        "Ġman",
        "ag"
      ],
      [
        "Ġfe",
        "et"
      ],
      [
        "pp",
        "ed"
      ],
      [
        "ris",
        "on"
      ],
      [
        "Ġto",
        "get"
      ],
      [
        "Ġtoget",
        "her"
      ],
      [
        "us",
        "h"
      ],
      [
        "Ġadd",
        "ed"
      ],
      [
        "ĠH",
        "ist"
      ],
      [
        "ĠH",
        "ouse"
      ],
      [
        "Ġt",
        "re"
      ],
      [
        "Ġh",
        "old"
      ],
      [
        "ber",
        "t"
      ],
      [
        "Ġc",
        "ut"
      ],
      [
        "iv",
        "id"
      ],
      [
        "Ġ18",
        "8"
      ],
      [
        "Ġwh",
        "ite"
      ],
      [
        "Ġon",
        "ce"
      ],
      [
        "Ġn",
        "ov"
      ],
      [
        "amp",
        "le"
      ],
      [
        "am",
        "ent"
      ],
      [
        "Ġform",
        "ed"
      ],
      [
        "Ġar",
        "g"
      ],
      [
        "Ġloc",
        "ated"
      ],
      [
        "Ġst",
        "ri"
      ],
      [
        "ree",
        "k"
      ],
      [
        "ur",
        "b"
      ],
      [
        "Ġcon",
        "n"
      ],
      [
        "Ġmod",
        "ern"
      ],
      [
        "o",
        "ff"
      ],
      [
        "ĠBl",
        "ack"
      ],
      [
        "Ġen",
        "c"
      ],
      [
        "Ġinst",
        "ead"
      ],
      [
        "d",
        "le"
      ],
      [
        "ĠP",
        "ort"
      ],
      [
        "he",
        "ad"
      ],
      [
        "rough",
        "t"
      ],
      [
        "ac",
        "es"
      ],
      [
        "Ġro",
        "und"
      ],
      [
        "Ġ",
        "esc"
      ],
      [
        "Ġ3",
        "1"
      ],
      [
        "Ġb",
        "all"
      ],
      [
        "ar",
        "a"
      ],
      [
        "Ġm",
        "ix"
      ],
      [
        "em",
        "y"
      ],
      [
        "ĠIn",
        "tern"
      ],
      [
        "Ġimport",
        "ant"
      ],
      [
        "e",
        "e"
      ],
      [
        "Ġp",
        "ri"
      ],
      [
        "c",
        "ing"
      ],
      [
        "Ġcre",
        "w"
      ],
      [
        "Ġs",
        "aw"
      ],
      [
        "Ġa",
        "ction"
      ],
      [
        "Ġcomple",
        "ted"
      ],
      [
        "Ġre",
        "du"
      ],
      [
        "ĠIt",
        "al"
      ],
      [
        "Ġplay",
        "ing"
      ],
      [
        "ect",
        "s"
      ],
      [
        "ĠInd",
        "ian"
      ],
      [
        "id",
        "s"
      ],
      [
        "one",
        "y"
      ],
      [
        "c",
        "ent"
      ],
      [
        "r",
        "ated"
      ],
      [
        "ĠO",
        "ther"
      ],
      [
        "ell",
        "s"
      ],
      [
        "Ġ200",
        "4"
      ],
      [
        "at",
        "a"
      ],
      [
        "Ġins",
        "p"
      ],
      [
        "Ġb",
        "ase"
      ],
      [
        "Ġm",
        "ater"
      ],
      [
        "Ġpop",
        "ulation"
      ],
      [
        "ĠM",
        "y"
      ],
      [
        "Ġm",
        "ot"
      ],
      [
        "Ġsur",
        "v"
      ],
      [
        "ĠMich",
        "ael"
      ],
      [
        "Ġv",
        "oc"
      ],
      [
        "Ġas",
        "k"
      ],
      [
        "Ġr",
        "ather"
      ],
      [
        "Ġocc",
        "ur"
      ],
      [
        "Ġopen",
        "ed"
      ],
      [
        "Ġst",
        "age"
      ],
      [
        "Ġbeh",
        "ind"
      ],
      [
        "Ġother",
        "s"
      ],
      [
        "Ġ18",
        "6"
      ],
      [
        "r",
        "ay"
      ],
      [
        "Ġf",
        "all"
      ],
      [
        "Ġre",
        "n"
      ],
      [
        "Ġgun",
        "s"
      ],
      [
        "as",
        "ing"
      ],
      [
        "ce",
        "ed"
      ],
      [
        "Ġbro",
        "ther"
      ],
      [
        "wo",
        "od"
      ],
      [
        "em",
        "ents"
      ],
      [
        "ign",
        "ed"
      ],
      [
        "Ġcom",
        "ment"
      ],
      [
        "l",
        "in"
      ],
      [
        "Ġl",
        "ik"
      ],
      [
        "st",
        "it"
      ],
      [
        "Ġb",
        "orn"
      ],
      [
        "Ġf",
        "if"
      ],
      [
        "Ġ201",
        "5"
      ],
      [
        "Ġs",
        "ite"
      ],
      [
        "Ġl",
        "ive"
      ],
      [
        "Ġwork",
        "s"
      ],
      [
        "Ġl",
        "oss"
      ],
      [
        "ĠFran",
        "ce"
      ],
      [
        "Ġb",
        "omb"
      ],
      [
        "Ġwork",
        "ed"
      ],
      [
        "fic",
        "ult"
      ],
      [
        "Ġhe",
        "avy"
      ],
      [
        "Ġm",
        "iss"
      ],
      [
        "Ġp",
        "red"
      ],
      [
        "Ã",
        "¡"
      ],
      [
        "ĠS",
        "chool"
      ],
      [
        "med",
        "i"
      ],
      [
        "ra",
        "p"
      ],
      [
        "Ġsub",
        "sequ"
      ],
      [
        "Ġl",
        "ack"
      ],
      [
        "Ġpart",
        "y"
      ],
      [
        "Ġpro",
        "blem"
      ],
      [
        "nd",
        "er"
      ],
      [
        "le",
        "ction"
      ],
      [
        "Ġdif",
        "ficult"
      ],
      [
        "Ġcl",
        "ose"
      ],
      [
        "ĠW",
        "ash"
      ],
      [
        "Ġconst",
        "ruction"
      ],
      [
        "Ġkn",
        "ow"
      ],
      [
        "ĠN",
        "or"
      ],
      [
        "ĠS",
        "ome"
      ],
      [
        "Ġrelations",
        "hip"
      ],
      [
        "Ġh",
        "ost"
      ],
      [
        "Ġweek",
        "s"
      ],
      [
        "ist",
        "ic"
      ],
      [
        "ĠS",
        "an"
      ],
      [
        "Ġorigin",
        "ally"
      ],
      [
        "Ġse",
        "par"
      ],
      [
        "Ġass",
        "oci"
      ],
      [
        "ar",
        "ch"
      ],
      [
        "c",
        "o"
      ],
      [
        "Ġup",
        "on"
      ],
      [
        "Ġpr",
        "act"
      ],
      [
        "Ġre",
        "b"
      ],
      [
        "ĠHen",
        "ry"
      ],
      [
        "Ġlead",
        "ing"
      ],
      [
        "Ġapp",
        "oin"
      ],
      [
        "Ġacc",
        "om"
      ],
      [
        "Ġv",
        "ill"
      ],
      [
        "Ġal",
        "most"
      ],
      [
        "Ġm",
        "er"
      ],
      [
        "ĠRober",
        "t"
      ],
      [
        "ort",
        "s"
      ],
      [
        "Ġpe",
        "ak"
      ],
      [
        "ĠA",
        "le"
      ],
      [
        "Ġin",
        "j"
      ],
      [
        "Ġdam",
        "age"
      ],
      [
        "l",
        "ic"
      ],
      [
        "un",
        "k"
      ],
      [
        "Ġsc",
        "ored"
      ],
      [
        "Ġfour",
        "th"
      ],
      [
        "os",
        "ition"
      ],
      [
        "Ġin",
        "form"
      ],
      [
        "Ġ200",
        "0"
      ],
      [
        "Ġre",
        "ve"
      ],
      [
        "ĠMus",
        "ic"
      ],
      [
        "ap",
        "s"
      ],
      [
        "Ġprov",
        "ided"
      ],
      [
[...]
